{
  "version": "1.0",
  "truncation": null,
  "padding": null,
  "added_tokens": [
    {
      "id": 0,
      "content": "<pad>",
      "single_word": false,
      "lstrip": false,
      "rstrip": false,
      "normalized": false,
      "special": true
    },
    {
      "id": 1,
      "content": "<sos>",
      "single_word": false,
      "lstrip": false,
      "rstrip": false,
      "normalized": false,
      "special": true
    },
    {
      "id": 2,
      "content": "<eos>",
      "single_word": false,
      "lstrip": false,
      "rstrip": false,
      "normalized": false,
      "special": true
    },
    {
      "id": 3,
      "content": "<unk>",
      "single_word": false,
      "lstrip": false,
      "rstrip": false,
      "normalized": false,
      "special": true
    }
  ],
  "normalizer": null,
  "pre_tokenizer": {
    "type": "ByteLevel",
    "add_prefix_space": false,
    "trim_offsets": true,
    "use_regex": true
  },
  "post_processor": {
    "type": "ByteLevel",
    "add_prefix_space": true,
    "trim_offsets": false,
    "use_regex": true
  },
  "decoder": {
    "type": "ByteLevel",
    "add_prefix_space": true,
    "trim_offsets": true,
    "use_regex": true
  },
  "model": {
    "type": "BPE",
    "dropout": null,
    "unk_token": null,
    "continuing_subword_prefix": null,
    "end_of_word_suffix": null,
    "fuse_unk": false,
    "byte_fallback": false,
    "ignore_merges": false,
    "vocab": {
      "<pad>": 0,
      "<sos>": 1,
      "<eos>": 2,
      "<unk>": 3,
      "!": 4,
      "\"": 5,
      "#": 6,
      "$": 7,
      "%": 8,
      "&": 9,
      "'": 10,
      "(": 11,
      ")": 12,
      "*": 13,
      "+": 14,
      ",": 15,
      "-": 16,
      ".": 17,
      "/": 18,
      "0": 19,
      "1": 20,
      "2": 21,
      "3": 22,
      "4": 23,
      "5": 24,
      "6": 25,
      "7": 26,
      "8": 27,
      "9": 28,
      ":": 29,
      ";": 30,
      "<": 31,
      "=": 32,
      ">": 33,
      "?": 34,
      "@": 35,
      "A": 36,
      "B": 37,
      "C": 38,
      "D": 39,
      "E": 40,
      "F": 41,
      "G": 42,
      "H": 43,
      "I": 44,
      "J": 45,
      "K": 46,
      "L": 47,
      "M": 48,
      "N": 49,
      "O": 50,
      "P": 51,
      "Q": 52,
      "R": 53,
      "S": 54,
      "T": 55,
      "U": 56,
      "V": 57,
      "W": 58,
      "X": 59,
      "Y": 60,
      "Z": 61,
      "[": 62,
      "\\": 63,
      "]": 64,
      "^": 65,
      "_": 66,
      "`": 67,
      "a": 68,
      "b": 69,
      "c": 70,
      "d": 71,
      "e": 72,
      "f": 73,
      "g": 74,
      "h": 75,
      "i": 76,
      "j": 77,
      "k": 78,
      "l": 79,
      "m": 80,
      "n": 81,
      "o": 82,
      "p": 83,
      "q": 84,
      "r": 85,
      "s": 86,
      "t": 87,
      "u": 88,
      "v": 89,
      "w": 90,
      "x": 91,
      "y": 92,
      "z": 93,
      "{": 94,
      "|": 95,
      "}": 96,
      "~": 97,
      "¡": 98,
      "¢": 99,
      "£": 100,
      "¤": 101,
      "¥": 102,
      "¦": 103,
      "§": 104,
      "¨": 105,
      "©": 106,
      "ª": 107,
      "«": 108,
      "¬": 109,
      "®": 110,
      "¯": 111,
      "°": 112,
      "±": 113,
      "²": 114,
      "³": 115,
      "´": 116,
      "µ": 117,
      "¶": 118,
      "·": 119,
      "¸": 120,
      "¹": 121,
      "º": 122,
      "»": 123,
      "¼": 124,
      "½": 125,
      "¾": 126,
      "¿": 127,
      "À": 128,
      "Á": 129,
      "Â": 130,
      "Ã": 131,
      "Ä": 132,
      "Å": 133,
      "Æ": 134,
      "Ç": 135,
      "È": 136,
      "É": 137,
      "Ê": 138,
      "Ë": 139,
      "Ì": 140,
      "Í": 141,
      "Î": 142,
      "Ï": 143,
      "Ð": 144,
      "Ñ": 145,
      "Ò": 146,
      "Ó": 147,
      "Ô": 148,
      "Õ": 149,
      "Ö": 150,
      "×": 151,
      "Ø": 152,
      "Ù": 153,
      "Ú": 154,
      "Û": 155,
      "Ü": 156,
      "Ý": 157,
      "Þ": 158,
      "ß": 159,
      "à": 160,
      "á": 161,
      "â": 162,
      "ã": 163,
      "ä": 164,
      "å": 165,
      "æ": 166,
      "ç": 167,
      "è": 168,
      "é": 169,
      "ê": 170,
      "ë": 171,
      "ì": 172,
      "í": 173,
      "î": 174,
      "ï": 175,
      "ð": 176,
      "ñ": 177,
      "ò": 178,
      "ó": 179,
      "ô": 180,
      "õ": 181,
      "ö": 182,
      "÷": 183,
      "ø": 184,
      "ù": 185,
      "ú": 186,
      "û": 187,
      "ü": 188,
      "ý": 189,
      "þ": 190,
      "ÿ": 191,
      "Ā": 192,
      "ā": 193,
      "Ă": 194,
      "ă": 195,
      "Ą": 196,
      "ą": 197,
      "Ć": 198,
      "ć": 199,
      "Ĉ": 200,
      "ĉ": 201,
      "Ċ": 202,
      "ċ": 203,
      "Č": 204,
      "č": 205,
      "Ď": 206,
      "ď": 207,
      "Đ": 208,
      "đ": 209,
      "Ē": 210,
      "ē": 211,
      "Ĕ": 212,
      "ĕ": 213,
      "Ė": 214,
      "ė": 215,
      "Ę": 216,
      "ę": 217,
      "Ě": 218,
      "ě": 219,
      "Ĝ": 220,
      "ĝ": 221,
      "Ğ": 222,
      "ğ": 223,
      "Ġ": 224,
      "ġ": 225,
      "Ģ": 226,
      "ģ": 227,
      "Ĥ": 228,
      "ĥ": 229,
      "Ħ": 230,
      "ħ": 231,
      "Ĩ": 232,
      "ĩ": 233,
      "Ī": 234,
      "ī": 235,
      "Ĭ": 236,
      "ĭ": 237,
      "Į": 238,
      "į": 239,
      "İ": 240,
      "ı": 241,
      "Ĳ": 242,
      "ĳ": 243,
      "Ĵ": 244,
      "ĵ": 245,
      "Ķ": 246,
      "ķ": 247,
      "ĸ": 248,
      "Ĺ": 249,
      "ĺ": 250,
      "Ļ": 251,
      "ļ": 252,
      "Ľ": 253,
      "ľ": 254,
      "Ŀ": 255,
      "ŀ": 256,
      "Ł": 257,
      "ł": 258,
      "Ń": 259,
      "er": 260,
      "en": 261,
      "ch": 262,
      "in": 263,
      "Ġa": 264,
      "Ġs": 265,
      "Ġt": 266,
      "Ġd": 267,
      "Ġw": 268,
      "Ġh": 269,
      "nd": 270,
      "ie": 271,
      "Ġth": 272,
      "te": 273,
      "es": 274,
      "ich": 275,
      "Ġm": 276,
      "it": 277,
      "Ġb": 278,
      "Ġthe": 279,
      "on": 280,
      "is": 281,
      "re": 282,
      "ein": 283,
      "Ġn": 284,
      "Ġu": 285,
      "as": 286,
      "an": 287,
      "ar": 288,
      "Ġf": 289,
      "Ġg": 290,
      "at": 291,
      "ou": 292,
      "ll": 293,
      "or": 294,
      "ed": 295,
      "Ġo": 296,
      "ing": 297,
      "Ġin": 298,
      "Ġl": 299,
      "Ã¼": 300,
      "Ġand": 301,
      "Ġund": 302,
      "Ġto": 303,
      "el": 304,
      "Ġv": 305,
      "ig": 306,
      "Ġc": 307,
      "Ġi": 308,
      "Ġdie": 309,
      "st": 310,
      "ĠS": 311,
      "Ġof": 312,
      "Ġein": 313,
      "Ã¤": 314,
      "Ġz": 315,
      "le": 316,
      "Ġp": 317,
      "Ġbe": 318,
      "em": 319,
      "ÃŁ": 320,
      "om": 321,
      "Ġha": 322,
      "Ġer": 323,
      "he": 324,
      "ur": 325,
      "un": 326,
      "ter": 327,
      "et": 328,
      "hr": 329,
      "Ġder": 330,
      "ck": 331,
      "au": 332,
      "Ġk": 333,
      "ir": 334,
      "ten": 335,
      "ĠA": 336,
      "Ġzu": 337,
      "Ġhe": 338,
      "al": 339,
      "Ġau": 340,
      "id": 341,
      "gen": 342,
      "Ġno": 343,
      "im": 344,
      "icht": 345,
      "ĠG": 346,
      "ach": 347,
      "Ġan": 348,
      "Â«": 349,
      "Â»": 350,
      "Ġsa": 351,
      "Ġwas": 352,
      "Ġwh": 353,
      "ber": 354,
      "ro": 355,
      "ĠI": 356,
      "ĠM": 357,
      "Ã¶": 358,
      "Ġsie": 359,
      "Ġe": 360,
      "Ġso": 361,
      "Ġher": 362,
      "ge": 363,
      "ĠK": 364,
      "Ġda": 365,
      "ent": 366,
      "ĠB": 367,
      "ld": 368,
      "ut": 369,
      "and": 370,
      "lich": 371,
      "ĠH": 372,
      "se": 373,
      "Ġden": 374,
      "sch": 375,
      "am": 376,
      "Ġy": 377,
      "Ġthat": 378,
      "Ġis": 379,
      "Ġon": 380,
      "Ġnicht": 381,
      "ow": 382,
      "Ġsich": 383,
      "ce": 384,
      "Ġit": 385,
      "ere": 386,
      "ĠL": 387,
      "Ġwar": 388,
      "ĠT": 389,
      "Ġver": 390,
      "Ġst": 391,
      "Ġih": 392,
      "ĠF": 393,
      "ly": 394,
      "ad": 395,
      "Ġre": 396,
      "Ġyou": 397,
      "ith": 398,
      "th": 399,
      "Ġge": 400,
      "ben": 401,
      "Ġhis": 402,
      "ve": 403,
      "ĠW": 404,
      "ei": 405,
      "Ġich": 406,
      "Ġr": 407,
      "Ġdas": 408,
      "Ġsein": 409,
      "Ġsch": 410,
      "Ġwith": 411,
      "ess": 412,
      "ĠE": 413,
      "Ġmit": 414,
      "Ġall": 415,
      "Ġj": 416,
      "ion": 417,
      "Ġal": 418,
      "ung": 419,
      "Ġauf": 420,
      "end": 421,
      "Ġun": 422,
      "ra": 423,
      "ver": 424,
      "Ġfor": 425,
      "Ã¼r": 426,
      "ann": 427,
      "ke": 428,
      "Ġse": 429,
      "ĠP": 430,
      "Ġhad": 431,
      "Ġas": 432,
      "Ġhat": 433,
      "der": 434,
      "ill": 435,
      "Ġnot": 436,
      "ht": 437,
      "Ġwie": 438,
      "Ġes": 439,
      "de": 440,
      "Ġvon": 441,
      "ĠV": 442,
      "Ġhim": 443,
      "ĠdaÃŁ": 444,
      "Ġat": 445,
      "Ġme": 446,
      "oo": 447,
      "ĠR": 448,
      "den": 449,
      "il": 450,
      "Ġdem": 451,
      "Ġshe": 452,
      "ne": 453,
      "ĠD": 454,
      "us": 455,
      "all": 456,
      "âĢ": 457,
      "chen": 458,
      "ould": 459,
      "be": 460,
      "ted": 461,
      "gte": 462,
      "hen": 463,
      "ĠSch": 464,
      "Ġim": 465,
      "Ġdo": 466,
      "Ġihr": 467,
      "out": 468,
      "'s": 469,
      "est": 470,
      "Ġfr": 471,
      "ind": 472,
      "Ġist": 473,
      "pp": 474,
      "ay": 475,
      "ol": 476,
      "ain": 477,
      "um": 478,
      "oll": 479,
      "sen": 480,
      "ft": 481,
      "Ġhatte": 482,
      "Ġne": 483,
      "Ġdes": 484,
      "ĠÂ»": 485,
      "uch": 486,
      "Ġals": 487,
      "mer": 488,
      "men": 489,
      "ff": 490,
      "ĠZ": 491,
      "Ã¼ber": 492,
      "ic": 493,
      "Ġeine": 494,
      "ick": 495,
      "nen": 496,
      "os": 497,
      "hl": 498,
      "ers": 499,
      "Ġle": 500,
      "Ġsp": 501,
      "ĠSt": 502,
      "Ġwe": 503,
      "ag": 504,
      "Ġsaid": 505,
      "ĠâĢ": 506,
      "ier": 507,
      "qu": 508,
      "und": 509,
      ".Â«": 510,
      "Ġab": 511,
      "ab": 512,
      "sel": 513,
      "Ġsh": 514,
      "ct": 515,
      "Ġbut": 516,
      "Ġaus": 517,
      "ul": 518,
      "etz": 519,
      "oug": 520,
      "ore": 521,
      "Ġman": 522,
      "ĠSie": 523,
      "ern": 524,
      "igen": 525,
      "ot": 526,
      "ust": 527,
      "Ġhave": 528,
      "che": 529,
      "ĠÃ¼ber": 530,
      "ort": 531,
      "ĠâĢĵ": 532,
      "bl": 533,
      "ome": 534,
      "The": 535,
      "Ġaber": 536,
      "ight": 537,
      "her": 538,
      "ons": 539,
      "Ġvor": 540,
      "ĠN": 541,
      "Ġli": 542,
      "Ġihm": 543,
      "Ġde": 544,
      ".\"": 545,
      "Ġum": 546,
      "Ã¼ck": 547,
      "ĠAn": 548,
      "we": 549,
      "ant": 550,
      "itt": 551,
      "anz": 552,
      "..": 553,
      "Ġmein": 554,
      "enn": 555,
      "--": 556,
      "ĠJ": 557,
      "Ġmy": 558,
      "Ġch": 559,
      "rie": 560,
      "Ġwhich": 561,
      "ri": 562,
      "urch": 563,
      "uÃŁ": 564,
      "ang": 565,
      "op": 566,
      "Ġdies": 567,
      "Ġnach": 568,
      "our": 569,
      "Ġfrom": 570,
      "ard": 571,
      "Ġsagte": 572,
      "Ich": 573,
      "Ġex": 574,
      "la": 575,
      "Ġ\"": 576,
      "Ġnoch": 577,
      "ĠLe": 578,
      "hn": 579,
      "Ġihn": 580,
      "Ġby": 581,
      "ther": 582,
      "ien": 583,
      "Ġhin": 584,
      "ist": 585,
      "fe": 586,
      "Ġnur": 587,
      "ast": 588,
      "ew": 589,
      "ĠU": 590,
      "me": 591,
      "ken": 592,
      "ĠC": 593,
      "Ġeinen": 594,
      "Ġup": 595,
      "Ġwho": 596,
      "ĠfÃ¼r": 597,
      "Ġone": 598,
      "Ġmich": 599,
      "ĠAu": 600,
      "iel": 601,
      "ell": 602,
      "Ġthey": 603,
      "ous": 604,
      "Ġmir": 605,
      "!Â«": 606,
      "Ġthis": 607,
      "ru": 608,
      "Ã¶n": 609,
      "Ġwill": 610,
      "rau": 611,
      "Ġwir": 612,
      "Ġcon": 613,
      "?Â«": 614,
      "Ġwere": 615,
      "Ġor": 616,
      "Ġgew": 617,
      "lo": 618,
      "Ġam": 619,
      "na": 620,
      "ation": 621,
      "zu": 622,
      "Ġ'": 623,
      "esch": 624,
      "Ġar": 625,
      "Ġwould": 626,
      "fen": 627,
      "Ġauch": 628,
      "cht": 629,
      "ong": 630,
      "self": 631,
      "ure": 632,
      "Ġdu": 633,
      "aus": 634,
      "ame": 635,
      "ze": 636,
      "ap": 637,
      "ook": 638,
      "ite": 639,
      "Ġwor": 640,
      "ige": 641,
      "ĠVer": 642,
      "one": 643,
      "art": 644,
      "Ġbeg": 645,
      "Ġganz": 646,
      "ate": 647,
      "Ã¶r": 648,
      "Ġwer": 649,
      "ste": 650,
      "Ġthem": 651,
      "Ġwo": 652,
      "He": 653,
      "Ġihre": 654,
      "Ġout": 655,
      "Ġthere": 656,
      "ĠAr": 657,
      "Ġqu": 658,
      "Ġwel": 659,
      "ood": 660,
      "ire": 661,
      "Ġsu": 662,
      "keit": 663,
      "achte": 664,
      "Ġlie": 665,
      "ng": 666,
      "Ġro": 667,
      "Ġwieder": 668,
      "ĠGe": 669,
      "etzt": 670,
      "ade": 671,
      "ak": 672,
      "ound": 673,
      "Ġdar": 674,
      "rÃ¤": 675,
      "Ġdurch": 676,
      "ven": 677,
      "Ġgl": 678,
      "Ġeinem": 679,
      "Ġgo": 680,
      "Â«,": 681,
      "Ġent": 682,
      "Sie": 683,
      "lie": 684,
      "Die": 685,
      "Ġwenn": 686,
      "ĠEr": 687,
      "ass": 688,
      "?\"": 689,
      "Ġseine": 690,
      "ĠO": 691,
      "'t": 692,
      "Er": 693,
      "ild": 694,
      "Ã¤t": 695,
      "ute": 696,
      "ish": 697,
      "eine": 698,
      "Ġfa": 699,
      "ought": 700,
      "ungen": 701,
      "âĪ": 702,
      "âĪĴ": 703,
      "Ġwhen": 704,
      "mal": 705,
      "Ġtr": 706,
      "Ġbeen": 707,
      ",'": 708,
      "ommen": 709,
      "acht": 710,
      "od": 711,
      "Th": 712,
      ",\"": 713,
      "Ġwhat": 714,
      "Ġare": 715,
      "onsk": 716,
      "Ġkn": 717,
      "rei": 718,
      "ĠGes": 719,
      "elt": 720,
      "!\"": 721,
      "ĠHer": 722,
      "Ġzur": 723,
      "Ã¤nd": 724,
      "are": 725,
      "Ġcould": 726,
      "thing": 727,
      "ice": 728,
      "row": 729,
      "ĠAugen": 730,
      "ise": 731,
      "Ġag": 732,
      "Ġdoch": 733,
      "Ġmore": 734,
      "Ġbr": 735,
      "Ġste": 736,
      "heit": 737,
      "ough": 738,
      "ahr": 739,
      "Ġges": 740,
      "ack": 741,
      "Ġlook": 742,
      "ert": 743,
      "sten": 744,
      "Ġmo": 745,
      "Ġdid": 746,
      "sam": 747,
      "ĠBe": 748,
      ".'": 749,
      "ren": 750,
      "pt": 751,
      "Ġhand": 752,
      "Ġbei": 753,
      "Ġtheir": 754,
      "Ġabout": 755,
      "Ġnow": 756,
      "ond": 757,
      "wei": 758,
      "Ġif": 759,
      "ide": 760,
      "Ġeiner": 761,
      "ÃŁen": 762,
      "ine": 763,
      "ele": 764,
      "Ġcom": 765,
      "Ġhabe": 766,
      "Ġpr": 767,
      "eit": 768,
      "jew": 769,
      "Ġtim": 770,
      "Ġunter": 771,
      "way": 772,
      "bst": 773,
      "ile": 774,
      "Ġyour": 775,
      "Ġlo": 776,
      "to": 777,
      "pe": 778,
      "och": 779,
      "Ġbl": 780,
      "ble": 781,
      "pf": 782,
      "Wh": 783,
      "Ġany": 784,
      "Ġbes": 785,
      "Ġen": 786,
      "Ġbef": 787,
      "Ġdann": 788,
      "urn": 789,
      "Ġbet": 790,
      "age": 791,
      "Ġkl": 792,
      "ity": 793,
      "aft": 794,
      "Ġfe": 795,
      "Ġjetzt": 796,
      "Ġwei": 797,
      "Ġwoll": 798,
      "Ġthen": 799,
      "Ġever": 800,
      "Ġdenn": 801,
      "ved": 802,
      "lichen": 803,
      "leich": 804,
      "Ġknow": 805,
      "ink": 806,
      "Ġsel": 807,
      "It": 808,
      "Ġlike": 809,
      "wo": 810,
      "ary": 811,
      "zen": 812,
      "Ġhaben": 813,
      "Ġvery": 814,
      "inn": 815,
      "ause": 816,
      "Ġsome": 817,
      "esen": 818,
      "Ã¤r": 819,
      "pr": 820,
      "Ġonly": 821,
      "bt": 822,
      "ud": 823,
      "She": 824,
      "ings": 825,
      "ry": 826,
      "ischen": 827,
      "ĠfÃ¼": 828,
      "Ã¤ch": 829,
      "But": 830,
      "isch": 831,
      "Aber": 832,
      "ah": 833,
      "ked": 834,
      "tes": 835,
      "Ġpro": 836,
      "blick": 837,
      "Ġmehr": 838,
      "Ġseiner": 839,
      "assen": 840,
      "own": 841,
      "ĠkÃ¶n": 842,
      "Ġtoo": 843,
      "ive": 844,
      "Ġdiese": 845,
      "lex": 846,
      "ake": 847,
      "tete": 848,
      "Ġagain": 849,
      "per": 850,
      "able": 851,
      "vin": 852,
      "Ġtime": 853,
      "ronsk": 854,
      "wer": 855,
      "ally": 856,
      "ac": 857,
      "ĠwÃ¤": 858,
      "ank": 859,
      "Ġinto": 860,
      "Und": 861,
      "Ġthought": 862,
      "ug": 863,
      "Es": 864,
      "Ġger": 865,
      "And": 866,
      "ath": 867,
      "Ġget": 868,
      "hal": 869,
      "br": 870,
      "lle": 871,
      "Ġsee": 872,
      "ange": 873,
      "immer": 874,
      "Das": 875,
      "Ġet": 876,
      "was": 877,
      "los": 878,
      "fter": 879,
      "nt": 880,
      "ster": 881,
      "ving": 882,
      "ies": 883,
      "Ġoder": 884,
      "Ġlong": 885,
      "Ġnie": 886,
      "liche": 887,
      "Ġsehr": 888,
      "Ġschon": 889,
      "Ġover": 890,
      "angen": 891,
      "stand": 892,
      "Ġgr": 893,
      "Ġuns": 894,
      "ittle": 895,
      "hne": 896,
      "ider": 897,
      "ls": 898,
      "fÃ¼": 899,
      "ĠmuÃŁ": 900,
      "bar": 901,
      "cc": 902,
      "einen": 903,
      ",Â«": 904,
      "Der": 905,
      "if": 906,
      "og": 907,
      "iÃŁ": 908,
      "ief": 909,
      "Ġimmer": 910,
      "ys": 911,
      "Ġlittle": 912,
      "Ġwaren": 913,
      "Ġsei": 914,
      "Ġpl": 915,
      "ue": 916,
      "nte": 917,
      "Ġad": 918,
      "auf": 919,
      "Ġob": 920,
      "In": 921,
      "ance": 922,
      "Ġkann": 923,
      "ĠRe": 924,
      "Ġzum": 925,
      "achen": 926,
      "Ġselbst": 927,
      "Ġdis": 928,
      "Ġthan": 929,
      "Ġbec": 930,
      "Ġunder": 931,
      "Ġey": 932,
      "Ġdieser": 933,
      "Ġhimself": 934,
      "ĠAlex": 935,
      "Ġwur": 936,
      "Ġwerden": 937,
      "ĠGr": 938,
      "You": 939,
      "Ġnichts": 940,
      "Ġsind": 941,
      "?'": 942,
      "essen": 943,
      "ĠTh": 944,
      "jewin": 945,
      "Ġeven": 946,
      "eln": 947,
      "Ġja": 948,
      "Ġsm": 949,
      "Ġgro": 950,
      "ĠUn": 951,
      "itsch": 952,
      "Ġdr": 953,
      "...": 954,
      "Ġpe": 955,
      "Ġalles": 956,
      "tz": 957,
      "Ġevery": 958,
      "old": 959,
      "Ġfl": 960,
      "!'": 961,
      "Ġcan": 962,
      "ĠwÃ¼r": 963,
      "Ġoff": 964,
      "ĠFrau": 965,
      "ĠZeit": 966,
      "igkeit": 967,
      "enden": 968,
      "ated": 969,
      "schaft": 970,
      "Ġpo": 971,
      "iger": 972,
      "dem": 973,
      "ious": 974,
      "Ġdown": 975,
      "ĠhÃ¤t": 976,
      "Ġfra": 977,
      "ĠMr": 978,
      "ĠHand": 979,
      "ose": 980,
      "iden": 981,
      "gt": 982,
      "Ġsah": 983,
      ",,": 984,
      "ts": 985,
      "orn": 986,
      "Ġwelche": 987,
      "Ġwent": 988,
      "Ġgen": 989,
      "Ġsay": 990,
      "Ġhal": 991,
      "Ġseinen": 992,
      "Ġother": 993,
      "Ġrem": 994,
      "ĠBl": 995,
      "Ġetwas": 996,
      "ger": 997,
      "schen": 998,
      "Ġstill": 999,
      "air": 1000,
      "Ġsoll": 1001,
      "Ġhas": 1002,
      "Ġalle": 1003,
      "ĠAnna": 1004,
      "Ġhow": 1005,
      "ars": 1006,
      "nis": 1007,
      "Ġus": 1008,
      "ges": 1009,
      "ma": 1010,
      "eren": 1011,
      "pl": 1012,
      "Ġhier": 1013,
      "ried": 1014,
      "Ġseem": 1015,
      "Ġgre": 1016,
      "Ġshould": 1017,
      "imm": 1018,
      "uf": 1019,
      "wn": 1020,
      "itte": 1021,
      "Ġohne": 1022,
      "Ġem": 1023,
      "Ġjust": 1024,
      "Ġmeine": 1025,
      "ĠSte": 1026,
      "ester": 1027,
      "Ġapp": 1028,
      "ied": 1029,
      "Ġkon": 1030,
      "tw": 1031,
      "iss": 1032,
      "ree": 1033,
      "tet": 1034,
      "Ġits": 1035,
      "kommen": 1036,
      "Ġbo": 1037,
      "ĠVor": 1038,
      "Ġfir": 1039,
      "war": 1040,
      "ater": 1041,
      "Ġihrer": 1042,
      "ob": 1043,
      "Ġging": 1044,
      "itty": 1045,
      "Ġgood": 1046,
      "Ġweit": 1047,
      "Ġsuch": 1048,
      "Ġstand": 1049,
      "ĠzurÃ¼ck": 1050,
      "Ġgar": 1051,
      "hing": 1052,
      "Ġafter": 1053,
      "sk": 1054,
      "ep": 1055,
      "ions": 1056,
      "ĠLjewin": 1057,
      "Ġla": 1058,
      "Ġwurde": 1059,
      "iv": 1060,
      "hren": 1061,
      "Ġbefore": 1062,
      "Ġwen": 1063,
      "Ġseinem": 1064,
      "Ã¼n": 1065,
      "hrend": 1066,
      "Ġjed": 1067,
      "ĠLevin": 1068,
      "Ġwelch": 1069,
      "gel": 1070,
      "ull": 1071,
      "ward": 1072,
      "Ġmade": 1073,
      "fl": 1074,
      "ĠMen": 1075,
      "gend": 1076,
      "ÃŁe": 1077,
      "Ġtwo": 1078,
      "ters": 1079,
      "Ġnun": 1080,
      "Ġturn": 1081,
      "Ġmust": 1082,
      "ĠhÃ¤tte": 1083,
      "Ġway": 1084,
      "Ġfort": 1085,
      "What": 1086,
      "Ġeyes": 1087,
      "Ġback": 1088,
      "ness": 1089,
      "Ġeines": 1090,
      "Ġir": 1091,
      "ache": 1092,
      "ps": 1093,
      "leas": 1094,
      "Ġhead": 1095,
      "Ġres": 1096,
      "ĠAugenblick": 1097,
      "ĠAus": 1098,
      "ful": 1099,
      "pen": 1100,
      "ald": 1101,
      "Ġgeh": 1102,
      "Ġkam": 1103,
      "ĠIh": 1104,
      "Ġwird": 1105,
      "Ġbed": 1106,
      "chte": 1107,
      "Ġcome": 1108,
      "omet": 1109,
      "Ġihren": 1110,
      "ave": 1111,
      "Ġbis": 1112,
      "ĠMann": 1113,
      "Ġalso": 1114,
      "Ã¤n": 1115,
      "Ġpre": 1116,
      "Ġkonnte": 1117,
      "Ġnever": 1118,
      "lt": 1119,
      "ov": 1120,
      "uck": 1121,
      "Ġ--": 1122,
      "igh": 1123,
      "Ġspe": 1124,
      "ced": 1125,
      "Ġgegen": 1126,
      "glich": 1127,
      "tern": 1128,
      "Ġrep": 1129,
      "Ġbin": 1130,
      "ĠFre": 1131,
      "Ġfragte": 1132,
      "Ġdoor": 1133,
      "Ġwohl": 1134,
      "iff": 1135,
      "bei": 1136,
      "ents": 1137,
      "ohn": 1138,
      "Ġthink": 1139,
      "ci": 1140,
      "Ġvers": 1141,
      "ady": 1142,
      "ty": 1143,
      "ĠmÃ¶": 1144,
      "kt": 1145,
      "Ġzwei": 1146,
      "Ġsagen": 1147,
      "Ġwithout": 1148,
      "ese": 1149,
      "Ġface": 1150,
      "Ġthr": 1151,
      "Ġfirst": 1152,
      "uh": 1153,
      "Ġmuch": 1154,
      "ĠwÃ¼rde": 1155,
      "Ġwollte": 1156,
      "Ġper": 1157,
      "Ġbre": 1158,
      "Ġsol": 1159,
      "Ġkeine": 1160,
      "Ġgleich": 1161,
      "Ġbeh": 1162,
      "Ġjen": 1163,
      "Ġend": 1164,
      "Ġpass": 1165,
      "ost": 1166,
      "ord": 1167,
      "aÃŁ": 1168,
      "Ġcame": 1169,
      "ĠKitty": 1170,
      "Ã¼s": 1171,
      "aten": 1172,
      "ely": 1173,
      "alt": 1174,
      "ĠEm": 1175,
      "Ġdiesem": 1176,
      "red": 1177,
      "Ġdon": 1178,
      "ander": 1179,
      "Ġ(": 1180,
      "aking": 1181,
      "ather": 1182,
      "ingen": 1183,
      "ĠSp": 1184,
      "issen": 1185,
      "Ġcons": 1186,
      "lau": 1187,
      "Ġdich": 1188,
      "Ġfelt": 1189,
      "ĠTom": 1190,
      "eil": 1191,
      "âĢ¹": 1192,
      "iz": 1193,
      "ian": 1194,
      "Ġold": 1195,
      "Ġcont": 1196,
      "aren": 1197,
      "Ġins": 1198,
      "Ã¼t": 1199,
      "Ġinter": 1200,
      "ĠWe": 1201,
      "Ġspr": 1202,
      "ĠGesicht": 1203,
      "get": 1204,
      "mit": 1205,
      "Ġsomet": 1206,
      "Ġseemed": 1207,
      "Ġviel": 1208,
      "alk": 1209,
      "Ã¤d": 1210,
      "Was": 1211,
      "ible": 1212,
      "Ġfre": 1213,
      "Ġwerde": 1214,
      "Ġaway": 1215,
      "ĠGed": 1216,
      "bens": 1217,
      "oss": 1218,
      "Ġgewesen": 1219,
      "ĠHerr": 1220,
      "Ġeinmal": 1221,
      "Ġwell": 1222,
      "anken": 1223,
      "Ġlau": 1224,
      "Ġword": 1225,
      "les": 1226,
      "isten": 1227,
      "eing": 1228,
      "Ġlooked": 1229,
      "Oh": 1230,
      "omm": 1231,
      "ĠPar": 1232,
      "Ġke": 1233,
      "olly": 1234,
      "Ã¤ng": 1235,
      "ĠKop": 1236,
      "ĠCh": 1237,
      "Ġsc": 1238,
      "Ġday": 1239,
      "Ġkein": 1240,
      "Ġwhere": 1241,
      "led": 1242,
      "Ġtra": 1243,
      "ĠhÃ¶r": 1244,
      "Ġbest": 1245,
      "Ġasked": 1246,
      "Als": 1247,
      "arm": 1248,
      "Ġlet": 1249,
      "Ġroom": 1250,
      "sicht": 1251,
      "Ġhere": 1252,
      "orm": 1253,
      "Ġimp": 1254,
      "unden": 1255,
      "Ġcl": 1256,
      "ĠAl": 1257,
      "eh": 1258,
      "fall": 1259,
      "Ġmom": 1260,
      "Ġnothing": 1261,
      "Ġchild": 1262,
      "Ġkne": 1263,
      "ĠEin": 1264,
      "Ġdre": 1265,
      "Ġfin": 1266,
      "ppen": 1267,
      "Ja": 1268,
      "Ġbro": 1269,
      "Ġgesch": 1270,
      "ĠkÃ¶nnen": 1271,
      "Ġvie": 1272,
      "etzte": 1273,
      "Ġupon": 1274,
      "ĠweiÃŁ": 1275,
      "its": 1276,
      "hlte": 1277,
      "So": 1278,
      "Ġvoll": 1279,
      "Ġbel": 1280,
      "ting": 1281,
      "ĠPf": 1282,
      "ane": 1283,
      "Ġwa": 1284,
      "reg": 1285,
      "ĠHe": 1286,
      "ruck": 1287,
      "erk": 1288,
      "af": 1289,
      "eld": 1290,
      "Ġzw": 1291,
      "Ġsond": 1292,
      "ock": 1293,
      "ign": 1294,
      "ielt": 1295,
      "Ġwom": 1296,
      "ily": 1297,
      "ouse": 1298,
      "unde": 1299,
      "Ġihrem": 1300,
      "cted": 1301,
      "Ġdir": 1302,
      "ister": 1303,
      "Ġpla": 1304,
      "Ġarm": 1305,
      "Ġwenig": 1306,
      "ĠBet": 1307,
      "Ġans": 1308,
      "Ġdieses": 1309,
      "igt": 1310,
      "Ã¤u": 1311,
      "Ġsehen": 1312,
      "rÃ¼": 1313,
      "Ġcar": 1314,
      "unk": 1315,
      "av": 1316,
      "pan": 1317,
      "Ġte": 1318,
      "Ġbecause": 1319,
      "Ġsaw": 1320,
      "utter": 1321,
      "ĠZimmer": 1322,
      "Yes": 1323,
      "Ġstr": 1324,
      "ways": 1325,
      "ĠAlexand": 1326,
      "Ġwind": 1327,
      "inder": 1328,
      "ronsky": 1329,
      "Ġ...": 1330,
      "Ġthose": 1331,
      "Ġbegan": 1332,
      "bte": 1333,
      "itz": 1334,
      "Ġgel": 1335,
      "Ġhatten": 1336,
      "Ġsomething": 1337,
      "No": 1338,
      "Ġown": 1339,
      "Ġpleas": 1340,
      "ische": 1341,
      "ĠSchw": 1342,
      "Ġlove": 1343,
      "Ġgerade": 1344,
      "Ġthese": 1345,
      "ase": 1346,
      "elte": 1347,
      "Ġzusam": 1348,
      "ople": 1349,
      "tel": 1350,
      "Ġverl": 1351,
      "Ġglau": 1352,
      "Ġthrough": 1353,
      "Ġihnen": 1354,
      "ner": 1355,
      "Ġmachte": 1356,
      "Ġonce": 1357,
      "They": 1358,
      "Ġfeel": 1359,
      "Ġco": 1360,
      "Ġschw": 1361,
      "Ġquite": 1362,
      "other": 1363,
      "Ġacc": 1364,
      "Ġgem": 1365,
      "Ġalways": 1366,
      "ect": 1367,
      "atter": 1368,
      "lichkeit": 1369,
      "ende": 1370,
      "Qu": 1371,
      "ces": 1372,
      "Ġversch": 1373,
      "ently": 1374,
      "owed": 1375,
      "cess": 1376,
      "ĠÃ": 1377,
      "ffen": 1378,
      "ared": 1379,
      "dr": 1380,
      "Ġdachte": 1381,
      "Ġzusammen": 1382,
      "Wie": 1383,
      "stÃ¤nd": 1384,
      "Ġverg": 1385,
      "Ġnew": 1386,
      "Ġpeople": 1387,
      "Ġmoment": 1388,
      "An": 1389,
      "Ġtre": 1390,
      "ĠLie": 1391,
      "cken": 1392,
      "ronski": 1393,
      "ished": 1394,
      "ret": 1395,
      "ĠSe": 1396,
      "twor": 1397,
      "Ein": 1398,
      "Ġerw": 1399,
      "ik": 1400,
      "ment": 1401,
      "uten": 1402,
      "vor": 1403,
      "ĠIhnen": 1404,
      "Ġcour": 1405,
      "ĠFl": 1406,
      "ĠwÃ¤hrend": 1407,
      "ĠBlick": 1408,
      "agen": 1409,
      "ĠAb": 1410,
      "ott": 1411,
      "nde": 1412,
      "Ġmake": 1413,
      "Ġtook": 1414,
      "Ġlassen": 1415,
      "ĠwÃ¤re": 1416,
      "halten": 1417,
      "Ġhor": 1418,
      "ss": 1419,
      "Ġlang": 1420,
      "Ġheard": 1421,
      "ĠIhr": 1422,
      "uhr": 1423,
      "Ġser": 1424,
      "Ġsil": 1425,
      "Ġersch": 1426,
      "ĠGesch": 1427,
      "Ġvo": 1428,
      "Ġantwor": 1429,
      "bend": 1430,
      "kl": 1431,
      "aint": 1432,
      "kann": 1433,
      "ince": 1434,
      "Ġrec": 1435,
      "mals": 1436,
      "ais": 1437,
      "Ġbeing": 1438,
      "Ġput": 1439,
      "Ġtell": 1440,
      "onst": 1441,
      "Ġgut": 1442,
      "Ġvom": 1443,
      "Ġpart": 1444,
      "lÃ¼ck": 1445,
      "ount": 1446,
      "Ġbegann": 1447,
      "There": 1448,
      "igte": 1449,
      "sche": 1450,
      "vers": 1451,
      "Ġlife": 1452,
      "Ġgreat": 1453,
      "ĠAlexandrow": 1454,
      "ichte": 1455,
      "Ġlast": 1456,
      "Ġret": 1457,
      "ho": 1458,
      "Ġgi": 1459,
      "Ġright": 1460,
      "Ġrief": 1461,
      "the": 1462,
      "Ġsl": 1463,
      "Ġwhile": 1464,
      "Ġgef": 1465,
      "Ġho": 1466,
      "Ġmar": 1467,
      "Ġmight": 1468,
      "ÃŁer": 1469,
      "Ġweiter": 1470,
      "man": 1471,
      "ehen": 1472,
      "agt": 1473,
      "'ll": 1474,
      "Ġsat": 1475,
      "aster": 1476,
      "ĠKopf": 1477,
      "fort": 1478,
      "hlen": 1479,
      "ahren": 1480,
      "Ġhands": 1481,
      "Ġopen": 1482,
      "Ġleft": 1483,
      "ĠAuf": 1484,
      "Ġweil": 1485,
      "ale": 1486,
      "ence": 1487,
      "Ġaller": 1488,
      "ĠâĢº": 1489,
      "Ã¤dchen": 1490,
      "Ġdiesen": 1491,
      "Ġsame": 1492,
      "geben": 1493,
      "Ġsondern": 1494,
      "Ġcall": 1495,
      "Ġherself": 1496,
      "ĠHau": 1497,
      "rechen": 1498,
      "ĠPr": 1499,
      "ĠlieÃŁ": 1500,
      "erin": 1501,
      "Ġmen": 1502,
      "orte": 1503,
      "uer": 1504,
      "atch": 1505,
      "ka": 1506,
      "ogen": 1507,
      "Ġmachen": 1508,
      "That": 1509,
      "Ġel": 1510,
      "als": 1511,
      "pped": 1512,
      "ickte": 1513,
      "ĠGer": 1514,
      "essed": 1515,
      "ĠStim": 1516,
      "ont": 1517,
      "ained": 1518,
      "ult": 1519,
      "Nun": 1520,
      "Ġnight": 1521,
      "llen": 1522,
      "Ġround": 1523,
      "ĠVronsky": 1524,
      "ochester": 1525,
      "Ġdist": 1526,
      "Ġanother": 1527,
      "ĠRochester": 1528,
      "erte": 1529,
      "ĠIn": 1530,
      "licher": 1531,
      "ves": 1532,
      "Ġirgend": 1533,
      "Ġknew": 1534,
      "Then": 1535,
      "att": 1536,
      "lei": 1537,
      "blonsk": 1538,
      "Ġwork": 1539,
      "Ġbetter": 1540,
      "Ġhouse": 1541,
      "ĠFÃ¼r": 1542,
      "von": 1543,
      "Ġyoung": 1544,
      "Ġlange": 1545,
      "ppe": 1546,
      "voll": 1547,
      "entlich": 1548,
      "beit": 1549,
      "iness": 1550,
      "ĠLeben": 1551,
      "Ġanswer": 1552,
      "ingo": 1553,
      "ever": 1554,
      "gh": 1555,
      "ling": 1556,
      "wh": 1557,
      "amen": 1558,
      "teil": 1559,
      "ĠmÃ¼s": 1560,
      "Ġnah": 1561,
      "Ġfar": 1562,
      "Ġwahr": 1563,
      "oun": 1564,
      "orgen": 1565,
      "ĠDolly": 1566,
      "ict": 1567,
      "ded": 1568,
      "Ġfound": 1569,
      "ged": 1570,
      "ph": 1571,
      "ĠLand": 1572,
      "Ġdra": 1573,
      "Ġbesch": 1574,
      "How": 1575,
      "Ġtake": 1576,
      "Ġgir": 1577,
      "aum": 1578,
      "ition": 1579,
      "ĠParis": 1580,
      "ingoire": 1581,
      "Well": 1582,
      "ple": 1583,
      "Ġour": 1584,
      "Ġyet": 1585,
      "ĠFr": 1586,
      "ations": 1587,
      "ĠMenschen": 1588,
      "itter": 1589,
      "Ġstar": 1590,
      "Ġschien": 1591,
      "ĠEnt": 1592,
      "Ġgoing": 1593,
      "Ġwindow": 1594,
      "Ġ_": 1595,
      "Ã¶hn": 1596,
      "ungs": 1597,
      "âĪĴâĪĴ": 1598,
      "ĠmuÃŁte": 1599,
      "uld": 1600,
      "Ġfind": 1601,
      "ĠWronski": 1602,
      "Ġdrei": 1603,
      "ĠHÃ¤nd": 1604,
      "arenin": 1605,
      "Ġclo": 1606,
      "ĠMÃ¤dchen": 1607,
      "Ġantwortete": 1608,
      "ĠStimme": 1609,
      "itten": 1610,
      "Ġze": 1611,
      "Ã¶tz": 1612,
      "Ġvoice": 1613,
      "hmen": 1614,
      "Ġtalk": 1615,
      "Ġerst": 1616,
      "Ġneu": 1617,
      "ined": 1618,
      "ush": 1619,
      "weg": 1620,
      "ife": 1621,
      "ĠwuÃŁ": 1622,
      "Ġthree": 1623,
      "ip": 1624,
      "up": 1625,
      "Ġgot": 1626,
      "Ġnat": 1627,
      "Ġandere": 1628,
      "Ã¤m": 1629,
      "ÃŁte": 1630,
      "ĠTÃ¼r": 1631,
      "All": 1632,
      "Ġgest": 1633,
      "hrt": 1634,
      "Ġkommen": 1635,
      "ĠAd": 1636,
      "Ġganze": 1637,
      "ail": 1638,
      "Ġwant": 1639,
      "Ġheart": 1640,
      "atz": 1641,
      "ĠPro": 1642,
      "ĠfÃ¼hlte": 1643,
      "Ġturned": 1644,
      "Ġfuhr": 1645,
      "Ġeigen": 1646,
      "Ġdavon": 1647,
      "Ġrecht": 1648,
      "Ġschl": 1649,
      "Ġdiff": 1650,
      "tem": 1651,
      "Ġpers": 1652,
      "ĠPl": 1653,
      "Ġshall": 1654,
      "ĠGedanken": 1655,
      "Wenn": 1656,
      "Ġtoward": 1657,
      "Ã¶rt": 1658,
      "When": 1659,
      "Ġhielt": 1660,
      "ans": 1661,
      "hrte": 1662,
      "tent": 1663,
      "ichen": 1664,
      "Ġeinz": 1665,
      "ĠUnd": 1666,
      "Ġagainst": 1667,
      "Du": 1668,
      "aar": 1669,
      "zimmer": 1670,
      "Ã¤ÃŁ": 1671,
      "unter": 1672,
      "vo": 1673,
      "Ã¼h": 1674,
      "Ġcle": 1675,
      "Ġnear": 1676,
      "ween": 1677,
      "lied": 1678,
      "ĠAlice": 1679,
      "Ġunderstand": 1680,
      "ĠEmma": 1681,
      "gesch": 1682,
      "ude": 1683,
      "âĢĶ": 1684,
      "Ġbesond": 1685,
      "Ġzwischen": 1686,
      "ĠlÃ¤ch": 1687,
      "ĠHaus": 1688,
      "Ġseen": 1689,
      "urm": 1690,
      "ĠFen": 1691,
      "ĠSchl": 1692,
      "ĠNacht": 1693,
      "Ġmeiner": 1694,
      "Ġnahm": 1695,
      "Tom": 1696,
      "Ġdort": 1697,
      "Ġlight": 1698,
      "Ġhaving": 1699,
      "Ġwhole": 1700,
      "ĠArk": 1701,
      "Ġanything": 1702,
      "less": 1703,
      "ying": 1704,
      "ĠOblonsk": 1705,
      "pect": 1706,
      "Ġeverything": 1707,
      "Ġsollte": 1708,
      "Nein": 1709,
      "az": 1710,
      "gleich": 1711,
      "ix": 1712,
      "ĠQu": 1713,
      "iet": 1714,
      "ragen": 1715,
      "regor": 1716,
      "net": 1717,
      "ĠMutter": 1718,
      "Ġreg": 1719,
      "ille": 1720,
      "This": 1721,
      "Ġbetween": 1722,
      "Ġpoin": 1723,
      "At": 1724,
      "klich": 1725,
      "wand": 1726,
      "Ġthough": 1727,
      "Ġthings": 1728,
      "ired": 1729,
      "ĠhÃ¶rte": 1730,
      "fa": 1731,
      "fte": 1732,
      "ene": 1733,
      "Ġthing": 1734,
      "ĠEs": 1735,
      "press": 1736,
      "ĠwuÃŁte": 1737,
      "Ġac": 1738,
      "ĠTag": 1739,
      "Ġkleinen": 1740,
      "lleicht": 1741,
      "ER": 1742,
      "ĠKinder": 1743,
      "Ġdabei": 1744,
      "ĠThe": 1745,
      "ody": 1746,
      "Ġwollen": 1747,
      "Ġhast": 1748,
      "Ġmeinen": 1749,
      "Ã¶tzlich": 1750,
      "gar": 1751,
      "ha": 1752,
      "Ġange": 1753,
      "ĠJane": 1754,
      "Ġwords": 1755,
      "ser": 1756,
      "Ġbere": 1757,
      "llt": 1758,
      "rochen": 1759,
      "Ġstra": 1760,
      "Ġgewor": 1761,
      "ertain": 1762,
      "Ġwelcher": 1763,
      "ses": 1764,
      "ating": 1765,
      "Ġindem": 1766,
      "leid": 1767,
      "ĠIch": 1768,
      "amm": 1769,
      "Ġread": 1770,
      "ction": 1771,
      "Ġmother": 1772,
      "reck": 1773,
      "Ġruh": 1774,
      "ucht": 1775,
      "ossible": 1776,
      "Ġhel": 1777,
      "Ġbald": 1778,
      "Ġgu": 1779,
      "els": 1780,
      "iges": 1781,
      "Ġallen": 1782,
      "merk": 1783,
      "Ġhinter": 1784,
      "Ġquest": 1785,
      "ĠAlexandrowitsch": 1786,
      "esser": 1787,
      "nete": 1788,
      "ĠDie": 1789,
      "ĠNe": 1790,
      "ĠArt": 1791,
      "Ġgesagt": 1792,
      "hin": 1793,
      "igung": 1794,
      "Ã¤l": 1795,
      "schein": 1796,
      "Ġgab": 1797,
      "Ã¶ff": 1798,
      "Ġgehen": 1799,
      "fÃ¤": 1800,
      "sehen": 1801,
      "Ġorder": 1802,
      "Ġmost": 1803,
      "Ġye": 1804,
      "Ġjo": 1805,
      "under": 1806,
      "ĠHerz": 1807,
      "Ġwoman": 1808,
      "asch": 1809,
      "fol": 1810,
      "anted": 1811,
      "ory": 1812,
      "Ġsoon": 1813,
      "ĠHause": 1814,
      "Ġappe": 1815,
      "ib": 1816,
      "iten": 1817,
      "Ġ..": 1818,
      "anc": 1819,
      "Ġfoll": 1820,
      "ĠKÃ¶n": 1821,
      "Ġdec": 1822,
      "rug": 1823,
      "Ġtrat": 1824,
      "Ġsur": 1825,
      "Ġtro": 1826,
      "Ġfell": 1827,
      "ĠKarenin": 1828,
      "ender": 1829,
      "lieÃŁ": 1830,
      "Ġplace": 1831,
      "Le": 1832,
      "ahl": 1833,
      "iend": 1834,
      "Ġind": 1835,
      "geg": 1836,
      "ĠKl": 1837,
      "ither": 1838,
      "jewitsch": 1839,
      "Ġblickte": 1840,
      "ully": 1841,
      "gr": 1842,
      "Ġhard": 1843,
      "Ġcur": 1844,
      "Ġear": 1845,
      "ĠBes": 1846,
      "Ġallein": 1847,
      "bed": 1848,
      "Ġfol": 1849,
      "Ġanderen": 1850,
      "ĠBr": 1851,
      "Ġ...Â«": 1852,
      "Ġbeiden": 1853,
      "Ġersten": 1854,
      "ĠBau": 1855,
      "Ġenter": 1856,
      "ĠFenster": 1857,
      "ĠArkad": 1858,
      "Ġwife": 1859,
      "isen": 1860,
      "Ã¤ft": 1861,
      "Ġsec": 1862,
      "Ġarch": 1863,
      "ĠUnter": 1864,
      "fin": 1865,
      "fle": 1866,
      "hol": 1867,
      "haft": 1868,
      "Ã¤cht": 1869,
      "Ġheraus": 1870,
      "Ġfriend": 1871,
      "Ġmany": 1872,
      "Ġganzen": 1873,
      "Ġhalf": 1874,
      "Ġconsider": 1875,
      "Da": 1876,
      "Ġset": 1877,
      "Ġgive": 1878,
      "odo": 1879,
      "inner": 1880,
      "aken": 1881,
      "aut": 1882,
      "Ġdarauf": 1883,
      "Man": 1884,
      "ia": 1885,
      "nung": 1886,
      "cher": 1887,
      "Ġmind": 1888,
      "Ġmay": 1889,
      "irt": 1890,
      "Ġcontin": 1891,
      "Ġbelie": 1892,
      "dden": 1893,
      "asim": 1894,
      "Ġbeim": 1895,
      "ĠKir": 1896,
      "ĠgroÃŁen": 1897,
      "ĠMrs": 1898,
      "Ġgeworden": 1899,
      "erge": 1900,
      "achten": 1901,
      "ĠWorte": 1902,
      "ĠGringoire": 1903,
      "ub": 1904,
      "ched": 1905,
      "Ġside": 1906,
      "Ġwish": 1907,
      "oot": 1908,
      "Ġwr": 1909,
      "ichten": 1910,
      "Ġbla": 1911,
      "Ġzer": 1912,
      "Ġsmile": 1913,
      "Ġreplied": 1914,
      "ĠFÃ¼rst": 1915,
      "Ġdone": 1916,
      "ember": 1917,
      "ement": 1918,
      "ĠGew": 1919,
      "Ġdamit": 1920,
      "Ġatt": 1921,
      "asimodo": 1922,
      "of": 1923,
      "sp": 1924,
      "Ġkind": 1925,
      "ĠStra": 1926,
      "ĠJo": 1927,
      "Ġwhe": 1928,
      "llte": 1929,
      "Ġlag": 1930,
      "Ġlooking": 1931,
      "fÃ¼hl": 1932,
      "Ġboth": 1933,
      "Ġfast": 1934,
      "ors": 1935,
      "Ġdaran": 1936,
      "Ġlaw": 1937,
      ".,": 1938,
      "zie": 1939,
      "ready": 1940,
      "Ġcertain": 1941,
      "ĠGregor": 1942,
      "schl": 1943,
      "ool": 1944,
      "Ġempf": 1945,
      "Ġwelches": 1946,
      "ued": 1947,
      "inge": 1948,
      "ĠKind": 1949,
      "ĠHÃ¶": 1950,
      "ĠHuck": 1951,
      "lossen": 1952,
      "chten": 1953,
      "ichter": 1954,
      "Ġmer": 1955,
      "Ġtold": 1956,
      "Ġeig": 1957,
      "ľber": 1958,
      "Ġaff": 1959,
      "Ġcap": 1960,
      "cke": 1961,
      "Ġeach": 1962,
      "Ã¼cken": 1963,
      "Ach": 1964,
      "Ġblie": 1965,
      "anden": 1966,
      "ieren": 1967,
      "ĠAlexei": 1968,
      "On": 1969,
      "Ġber": 1970,
      "Ġstood": 1971,
      "Ġschne": 1972,
      "Ġalready": 1973,
      "Ġandern": 1974,
      "Ġdazu": 1975,
      "ĠUm": 1976,
      "gest": 1977,
      "ler": 1978,
      "Ġverm": 1979,
      "Ġexc": 1980,
      "ĠdarÃ¼ber": 1981,
      "ĠKÃ¶nig": 1982,
      "ker": 1983,
      "xt": 1984,
      "ĠNach": 1985,
      "ĠGegen": 1986,
      "Ġpres": 1987,
      "Dann": 1988,
      "ja": 1989,
      "land": 1990,
      "ual": 1991,
      "Ã¼rlich": 1992,
      "Ġgirl": 1993,
      "Ġdel": 1994,
      "ield": 1995,
      "eder": 1996,
      "Ġkeinen": 1997,
      "ached": 1998,
      "ĠTe": 1999,
      "Ġgeb": 2000,
      "ular": 2001,
      "ĠLiebe": 2002,
      "band": 2003,
      "Ġtun": 2004,
      "Ġwhom": 2005,
      "gehen": 2006,
      "Ġseines": 2007,
      "Ġschle": 2008,
      "Ġdoes": 2009,
      "ered": 2010,
      "Ġwanted": 2011,
      "ĠArbeit": 2012,
      "Ġsudden": 2013,
      "Ġreturn": 2014,
      "ĠArkadjewitsch": 2015,
      "day": 2016,
      "ial": 2017,
      "Ġkomm": 2018,
      "Ġebens": 2019,
      "rown": 2020,
      "If": 2021,
      "Ġsen": 2022,
      "Ġtri": 2023,
      "Ġfing": 2024,
      "Ġfall": 2025,
      "Ġpain": 2026,
      "ĠOr": 2027,
      "We": 2028,
      "druck": 2029,
      "hap": 2030,
      "med": 2031,
      "Ġdessen": 2032,
      "ĠhÃ¶": 2033,
      "arl": 2034,
      "ĠFuÃŁ": 2035,
      "eite": 2036,
      "Ġconf": 2037,
      "Why": 2038,
      "ĠmÃ¼ssen": 2039,
      "mann": 2040,
      "Ġoffen": 2041,
      "Ġhear": 2042,
      "ĠFe": 2043,
      "ĠEnde": 2044,
      "ĠPe": 2045,
      "Ġspeak": 2046,
      "ĠOblonsky": 2047,
      "zÃ¤": 2048,
      "Ġgave": 2049,
      "ross": 2050,
      "Ġsupp": 2051,
      "Ġsetzte": 2052,
      "ĠTage": 2053,
      "ĠWort": 2054,
      "rage": 2055,
      "Ġwirklich": 2056,
      "Ġhome": 2057,
      "iderte": 2058,
      "Ġsprach": 2059,
      "Ġvielleicht": 2060,
      "Ġerwiderte": 2061,
      "Ġter": 2062,
      "Ġhour": 2063,
      "ason": 2064,
      "Ġfest": 2065,
      "Ġfew": 2066,
      "Ġlow": 2067,
      "ĠAbend": 2068,
      "Ġverste": 2069,
      "Ġgesehen": 2070,
      "bes": 2071,
      "Ġ-": 2072,
      "Ġcalled": 2073,
      "ace": 2074,
      "ks": 2075,
      "zt": 2076,
      "Ġdou": 2077,
      "Ġwand": 2078,
      "Ġhop": 2079,
      "Ġcann": 2080,
      "Ġcare": 2081,
      "unge": 2082,
      "Ġeben": 2083,
      "Ġalone": 2084,
      "Ġworden": 2085,
      "Ġbrother": 2086,
      "nÃ¼": 2087,
      "wan": 2088,
      "iting": 2089,
      "ures": 2090,
      "ides": 2091,
      "Ġsto": 2092,
      "Be": 2093,
      "CH": 2094,
      "hm": 2095,
      "ĠÃ¼": 2096,
      "oud": 2097,
      "Ġneed": 2098,
      "'ve": 2099,
      "Sch": 2100,
      "aun": 2101,
      "fahren": 2102,
      "res": 2103,
      "Ġ,,": 2104,
      "Ġbus": 2105,
      "ash": 2106,
      "Ġlisten": 2107,
      "room": 2108,
      "Ġrest": 2109,
      "ĠDien": 2110,
      "ruder": 2111,
      "Ġsuff": 2112,
      "halb": 2113,
      "Ġadv": 2114,
      "Ġquestion": 2115,
      "mand": 2116,
      "Ġhum": 2117,
      "ĠAber": 2118,
      "ĠWelt": 2119,
      "fer": 2120,
      "for": 2121,
      "Ġmorn": 2122,
      "Ġinc": 2123,
      "Ã¼nd": 2124,
      "Ġvis": 2125,
      "ovary": 2126,
      "Ã©": 2127,
      "Ġhus": 2128,
      "Ġph": 2129,
      "genheit": 2130,
      "ĠIwan": 2131,
      "ĠWei": 2132,
      "ĠEng": 2133,
      "Ġweg": 2134,
      "riff": 2135,
      "elle": 2136,
      "Ġlonger": 2137,
      "bo": 2138,
      "fully": 2139,
      "gem": 2140,
      "Ġsou": 2141,
      "arge": 2142,
      "Ġrose": 2143,
      "Ġcourse": 2144,
      "Ġsk": 2145,
      "Ġocc": 2146,
      "geb": 2147,
      "iled": 2148,
      "Ġhelp": 2149,
      "most": 2150,
      "Ġwissen": 2151,
      "Ġgra": 2152,
      "Ġass": 2153,
      "Ġdep": 2154,
      "ured": 2155,
      "Ġpoor": 2156,
      "Ġcannot": 2157,
      "Ġmorning": 2158,
      "Ġsort": 2159,
      "ĠauÃŁer": 2160,
      "rief": 2161,
      "TER": 2162,
      "ften": 2163,
      "tre": 2164,
      "Ġbesser": 2165,
      "Ġmyself": 2166,
      "Ġchildren": 2167,
      "'m": 2168,
      "Ġged": 2169,
      "Ġhapp": 2170,
      "ĠIt": 2171,
      "Ġsogar": 2172,
      "ĠPh": 2173,
      "Ġkleine": 2174,
      "ĠplÃ¶tzlich": 2175,
      "Now": 2176,
      "gew": 2177,
      "ĠKr": 2178,
      "aden": 2179,
      "Ġschwer": 2180,
      "Ġihres": 2181,
      "Ġmeinem": 2182,
      "Ġnieder": 2183,
      "Ġkeep": 2184,
      "ĠPrin": 2185,
      "His": 2186,
      "hre": 2187,
      "eres": 2188,
      "inter": 2189,
      "Ġeinige": 2190,
      "ĠGott": 2191,
      "Ġforg": 2192,
      "ctor": 2193,
      "ergei": 2194,
      "Ġblieb": 2195,
      "ject": 2196,
      "no": 2197,
      "ove": 2198,
      "ym": 2199,
      "Ġsir": 2200,
      "ĠnÃ¤": 2201,
      "Ġfam": 2202,
      "ĠSaint": 2203,
      "Ã¤lt": 2204,
      "ĠMitte": 2205,
      "gegen": 2206,
      "thers": 2207,
      "ĠschÃ¶n": 2208,
      "urcht": 2209,
      "ately": 2210,
      "wohl": 2211,
      "acon": 2212,
      "gether": 2213,
      "ĠÃľber": 2214,
      "As": 2215,
      "off": 2216,
      "Ġsit": 2217,
      "ĠMar": 2218,
      "ĠBovary": 2219,
      "Ġstre": 2220,
      "ical": 2221,
      "ĠBett": 2222,
      "ĠIwanow": 2223,
      "hÃ¶r": 2224,
      "Ġdro": 2225,
      "Ġill": 2226,
      "ĠSache": 2227,
      "ĠGl": 2228,
      "ĠBruder": 2229,
      "Ġrel": 2230,
      "sky": 2231,
      "Ġgemacht": 2232,
      "Ġsuddenly": 2233,
      "will": 2234,
      "Ġcr": 2235,
      "ĠKam": 2236,
      "ĠBild": 2237,
      "ĠfrÃ¼": 2238,
      "lagen": 2239,
      "Ġbehind": 2240,
      "Ġblack": 2241,
      "ĠÃ¤": 2242,
      "Ġsim": 2243,
      "Ġdein": 2244,
      "Ġdire": 2245,
      "atten": 2246,
      "Ġzog": 2247,
      "Ġev": 2248,
      "Ġdisc": 2249,
      "ĠmÃ¶glich": 2250,
      "ĠPfer": 2251,
      "Ġhusband": 2252,
      "Wir": 2253,
      "ieden": 2254,
      "Ġfiel": 2255,
      "Ġwhite": 2256,
      "ĠLeute": 2257,
      "gs": 2258,
      "over": 2259,
      "prÃ¤": 2260,
      "ennen": 2261,
      "Ġtw": 2262,
      "Ġvier": 2263,
      "ĠAnd": 2264,
      "Ġeff": 2265,
      "Ġdenen": 2266,
      "Ġhinzu": 2267,
      "Ġenough": 2268,
      "ĠgroÃŁe": 2269,
      "Ġfand": 2270,
      "ĠSeite": 2271,
      "Ġhervor": 2272,
      "etzen": 2273,
      "Ġlaugh": 2274,
      "Nach": 2275,
      "bur": 2276,
      "bus": 2277,
      "iver": 2278,
      "Ġtable": 2279,
      "ieg": 2280,
      "Ġmin": 2281,
      "Ġnor": 2282,
      "Ġclos": 2283,
      "Ġkur": 2284,
      "Ġjem": 2285,
      "ĠkÃ¶nnte": 2286,
      "Ġclear": 2287,
      "Ġhur": 2288,
      "liches": 2289,
      "ĠJohn": 2290,
      "ahre": 2291,
      "ĠThÃ¼r": 2292,
      "Ġremember": 2293,
      "Ġerschien": 2294,
      "AP": 2295,
      "jen": 2296,
      "auer": 2297,
      "Ã¶t": 2298,
      "ĠTr": 2299,
      "zte": 2300,
      "Ġsor": 2301,
      "Ġhold": 2302,
      "ised": 2303,
      "Ġfull": 2304,
      "Ġfoot": 2305,
      "Ġinv": 2306,
      "Ġbew": 2307,
      "ĠMe": 2308,
      "entle": 2309,
      "raft": 2310,
      "Ġmean": 2311,
      "Ġspo": 2312,
      "Ġbrought": 2313,
      "Ġcomp": 2314,
      "Ġschnell": 2315,
      "wing": 2316,
      "yer": 2317,
      "Ġact": 2318,
      "ieur": 2319,
      "Ġmon": 2320,
      "Ġinst": 2321,
      "ided": 2322,
      "ĠBo": 2323,
      "ĠDas": 2324,
      "airs": 2325,
      "ĠWeise": 2326,
      "ats": 2327,
      "Ġheute": 2328,
      "Ġalte": 2329,
      "Ġsub": 2330,
      "Ġniemals": 2331,
      "tr": 2332,
      "Ġche": 2333,
      "ins": 2334,
      "asse": 2335,
      "Ġflo": 2336,
      "llung": 2337,
      "ĠGod": 2338,
      "ows": 2339,
      "Ġalten": 2340,
      "uss": 2341,
      "...'": 2342,
      "utes": 2343,
      "stens": 2344,
      "ĠHaupt": 2345,
      "haps": 2346,
      "CHAP": 2347,
      "CHAPTER": 2348,
      "Ġwall": 2349,
      "Ġblei": 2350,
      "ichts": 2351,
      "ĠMad": 2352,
      "Ġverd": 2353,
      "ĠSchr": 2354,
      "Ġsprechen": 2355,
      "ĠStepan": 2356,
      "Ġwandte": 2357,
      "Ġide": 2358,
      "Ġschwar": 2359,
      "Ġalmost": 2360,
      "selben": 2361,
      "riest": 2362,
      "ĠChar": 2363,
      "pression": 2364,
      "ĠfrÃ¼her": 2365,
      "wÃ¼r": 2366,
      "Ġmag": 2367,
      "iter": 2368,
      "Ġwhy": 2369,
      "Ġstren": 2370,
      "ĠWagen": 2371,
      "ants": 2372,
      "Ġhinaus": 2373,
      "rÃ¤n": 2374,
      "Ġserv": 2375,
      "ule": 2376,
      "Ġswe": 2377,
      "oren": 2378,
      "Ġcal": 2379,
      "Ã¤h": 2380,
      "Ã¤hrend": 2381,
      "leep": 2382,
      "etzten": 2383,
      "Ġexpl": 2384,
      "ellschaft": 2385,
      "ĠgewÃ¶hn": 2386,
      "ĠglÃ¼ck": 2387,
      "Ġevening": 2388,
      "ĠmÃ¶chte": 2389,
      "form": 2390,
      "mut": 2391,
      "Ġtief": 2392,
      "Ġgern": 2393,
      "Ã¶l": 2394,
      "ĠLÃ¤ch": 2395,
      "Ġdark": 2396,
      "Ġklein": 2397,
      "anke": 2398,
      "Ġlay": 2399,
      "Ġlarge": 2400,
      "elnd": 2401,
      "Ġang": 2402,
      "Ġask": 2403,
      "ĠVol": 2404,
      "onsieur": 2405,
      "Ġquick": 2406,
      ",âĪĴâĪĴ": 2407,
      "uhe": 2408,
      "erer": 2409,
      "Ġgentle": 2410,
      "Ġpra": 2411,
      "ird": 2412,
      "Ġseit": 2413,
      "selves": 2414,
      "loÃŁ": 2415,
      "ĠHerzen": 2416,
      "Ġpassed": 2417,
      "ĠSchwester": 2418,
      "Ġanswered": 2419,
      "Mr": 2420,
      "ahe": 2421,
      "mÃ¶": 2422,
      "innen": 2423,
      "Ġwatch": 2424,
      "Ġfather": 2425,
      "Ġcount": 2426,
      "uchte": 2427,
      "Ġbetr": 2428,
      "Ġfinden": 2429,
      "Her": 2430,
      "Ġmatter": 2431,
      "Ġbrau": 2432,
      "reich": 2433,
      "llig": 2434,
      "Ġless": 2435,
      "Ġtogether": 2436,
      "Ġcond": 2437,
      "ckte": 2438,
      "ĠMiÃŁ": 2439,
      "cept": 2440,
      "ĠAng": 2441,
      "weise": 2442,
      "Ġworld": 2443,
      "Ġsmall": 2444,
      "Ġappro": 2445,
      "ĠIhre": 2446,
      "fallen": 2447,
      "Ġbesonders": 2448,
      "Ġebenso": 2449,
      "zw": 2450,
      "Ġmid": 2451,
      "Ã¼m": 2452,
      "Ġpriest": 2453,
      "Ġerh": 2454,
      "ĠGem": 2455,
      "ĠMin": 2456,
      "Ġstehen": 2457,
      "Ġwhether": 2458,
      "),": 2459,
      "kam": 2460,
      "spr": 2461,
      "Ġbook": 2462,
      "ĠSo": 2463,
      "ĠSeele": 2464,
      "ĠLÃ¤cheln": 2465,
      "War": 2466,
      "ited": 2467,
      "wÃ¤r": 2468,
      "Ġair": 2469,
      "Ġsince": 2470,
      "Ġmal": 2471,
      "Ã¼b": 2472,
      "Ġpar": 2473,
      "Ġpur": 2474,
      "Ġking": 2475,
      "tend": 2476,
      "ichtig": 2477,
      "Ġjud": 2478,
      "Ġabove": 2479,
      "abt": 2480,
      "ĠGeb": 2481,
      "ĠGefÃ¼hl": 2482,
      "ĠGesprÃ¤": 2483,
      "ĠAusdruck": 2484,
      "Ġed": 2485,
      "ĠÃ¶ff": 2486,
      "ches": 2487,
      "ĠwÃ¼n": 2488,
      "einander": 2489,
      "arr": 2490,
      "Ġhair": 2491,
      "Ġhappen": 2492,
      "ckt": 2493,
      "Ġkaum": 2494,
      "ĠsaÃŁ": 2495,
      "ĠMos": 2496,
      "schte": 2497,
      "ĠLi": 2498,
      "Ġred": 2499,
      "ĠVater": 2500,
      "Ġnext": 2501,
      "Ġwhose": 2502,
      "Ġruhig": 2503,
      "'re": 2504,
      "kun": 2505,
      "Ġdau": 2506,
      "Ġname": 2507,
      "Ġsofort": 2508,
      "Ġgeben": 2509,
      "Ġrun": 2510,
      "ili": 2511,
      "umm": 2512,
      "Ġhinein": 2513,
      "Ġbede": 2514,
      "Ġcontinued": 2515,
      "body": 2516,
      "hau": 2517,
      "ient": 2518,
      "sh": 2519,
      "uchen": 2520,
      "Ġsound": 2521,
      "Ġothers": 2522,
      "ĠMiss": 2523,
      "owing": 2524,
      "cei": 2525,
      "Ġreally": 2526,
      "Ġdesp": 2527,
      "Ã¼ckte": 2528,
      "zeit": 2529,
      "ĠAugenblicke": 2530,
      "Na": 2531,
      "nf": 2532,
      "heim": 2533,
      "Ġje": 2534,
      "ĠSchul": 2535,
      "Ġleave": 2536,
      "bracht": 2537,
      "laude": 2538,
      "Ġfeeling": 2539,
      "onstant": 2540,
      "Ġbusiness": 2541,
      "Em": 2542,
      "Jetzt": 2543,
      "Ġaw": 2544,
      "Ġma": 2545,
      "Ġmaster": 2546,
      "Ġcold": 2547,
      "ets": 2548,
      "Ġgekommen": 2549,
      "ĠWo": 2550,
      "Ġalong": 2551,
      "Ġleast": 2552,
      "Ġart": 2553,
      "elegenheit": 2554,
      "cially": 2555,
      "ĠQuasimodo": 2556,
      "ging": 2557,
      "zogen": 2558,
      "Ġhigh": 2559,
      "Ġmet": 2560,
      "reu": 2561,
      "ĠSergei": 2562,
      "adt": 2563,
      "ĠEuch": 2564,
      "Ġunc": 2565,
      "rieden": 2566,
      "zehn": 2567,
      "Diese": 2568,
      "Anna": 2569,
      "ushed": 2570,
      "Ġperson": 2571,
      "hle": 2572,
      "uft": 2573,
      "Ġtried": 2574,
      "Ġbad": 2575,
      "Ġlad": 2576,
      "ĠSon": 2577,
      "ably": 2578,
      "ĠgroÃŁ": 2579,
      "Ġsolche": 2580,
      "Ġjener": 2581,
      "bre": 2582,
      "bel": 2583,
      "Ġbist": 2584,
      "Ġeinf": 2585,
      "alked": 2586,
      "osition": 2587,
      "Ġchurch": 2588,
      "Ġconc": 2589,
      "lock": 2590,
      "ĠkÃ¶nne": 2591,
      "Ġeye": 2592,
      "ĠgehÃ¶rt": 2593,
      "ĠgegenÃ¼ber": 2594,
      "Ġarms": 2595,
      "Al": 2596,
      "prochen": 2597,
      "tain": 2598,
      "Ġwater": 2599,
      "Ġerwar": 2600,
      "ĠFrage": 2601,
      "Ġgek": 2602,
      "Ġneben": 2603,
      "falls": 2604,
      "Ġpoint": 2605,
      "Ah": 2606,
      "ually": 2607,
      "ĠX": 2608,
      "ieben": 2609,
      "Ġfire": 2610,
      "Ġpow": 2611,
      "Ġrepe": 2612,
      "ĠWie": 2613,
      "Ġrather": 2614,
      "ĠStu": 2615,
      "ĠGesellschaft": 2616,
      "brigen": 2617,
      "Ġadded": 2618,
      "Ġgenug": 2619,
      "âĢ¹,": 2620,
      "fern": 2621,
      "chter": 2622,
      "Ġlos": 2623,
      "Ġderen": 2624,
      "ĠGeld": 2625,
      "Ġdaher": 2626,
      "Ġunbe": 2627,
      "ĠVers": 2628,
      "Ġdev": 2629,
      "ĠJahre": 2630,
      "ĠHÃ¤nde": 2631,
      "par": 2632,
      "zus": 2633,
      "Ġtaken": 2634,
      "atur": 2635,
      "Ġbemerk": 2636,
      "ĠMal": 2637,
      "ĠWir": 2638,
      "ĠNot": 2639,
      "ience": 2640,
      "zeug": 2641,
      "gth": 2642,
      "ante": 2643,
      "Ġhab": 2644,
      "ĠheiÃŁ": 2645,
      "ĠMit": 2646,
      "Ġnecess": 2647,
      "itting": 2648,
      "Ġeigenen": 2649,
      "Ihr": 2650,
      "Ġgone": 2651,
      "ĠSir": 2652,
      "Ġdenken": 2653,
      "Ġung": 2654,
      "ĠAntw": 2655,
      "ĠUhr": 2656,
      "ates": 2657,
      "ĠfÃ¼nf": 2658,
      "ĠgrÃ¶": 2659,
      "ĠPlatz": 2660,
      "Ġyears": 2661,
      "Ġkommt": 2662,
      "ĠnÃ¤her": 2663,
      "ĠAntwort": 2664,
      "rÃ¶": 2665,
      "esh": 2666,
      "Ġbene": 2667,
      "Ġfro": 2668,
      "Ġfine": 2669,
      "Ġdays": 2670,
      "Ġstud": 2671,
      "ummer": 2672,
      "laim": 2673,
      "pected": 2674,
      "Ġdress": 2675,
      "Ġwomen": 2676,
      "Ġelse": 2677,
      "ĠKirche": 2678,
      "Emma": 2679,
      "du": 2680,
      "len": 2681,
      "Ġcried": 2682,
      "let": 2683,
      "Ġpossible": 2684,
      "ĠerzÃ¤": 2685,
      "ĠFle": 2686,
      "ĠPers": 2687,
      "bled": 2688,
      "Ġconvers": 2689,
      "oney": 2690,
      "Ġgold": 2691,
      "ĠHerrn": 2692,
      "Ġbelieve": 2693,
      "Im": 2694,
      "ahn": 2695,
      "Ġsing": 2696,
      "Ġverh": 2697,
      "Ġwegen": 2698,
      "Ġremained": 2699,
      "unkel": 2700,
      "Ġdiffic": 2701,
      "Ġsoul": 2702,
      "ĠIwanowitsch": 2703,
      "Ġbemerkte": 2704,
      "For": 2705,
      "One": 2706,
      "unt": 2707,
      "irc": 2708,
      "ĠBuch": 2709,
      "ilt": 2710,
      "Ġnehmen": 2711,
      "ittag": 2712,
      "ĠLebens": 2713,
      "ĠUng": 2714,
      "Ġcomm": 2715,
      "Ġniemand": 2716,
      "Ġgehabt": 2717,
      "Do": 2718,
      "Ġsister": 2719,
      "Ġinde": 2720,
      "uring": 2721,
      "ĠPap": 2722,
      "ĠDe": 2723,
      "Ġamong": 2724,
      "igeun": 2725,
      "Ġquiet": 2726,
      "achtete": 2727,
      "Ġwiederhol": 2728,
      "Ġentsch": 2729,
      "Ġfact": 2730,
      "ĠHerren": 2731,
      "Ġbecame": 2732,
      "Ġoffic": 2733,
      "Ġjeder": 2734,
      "ĠFreund": 2735,
      "Ġimport": 2736,
      "Ġneuen": 2737,
      "Ġfollowed": 2738,
      "Ġeigentlich": 2739,
      "li": 2740,
      "pfen": 2741,
      "Ġtru": 2742,
      "Ġhol": 2743,
      "arn": 2744,
      "Ġfur": 2745,
      "Ġoft": 2746,
      "Ġerinn": 2747,
      "ĠKo": 2748,
      "Ġreal": 2749,
      "Ġunge": 2750,
      "ĠZigeun": 2751,
      "Ġlegte": 2752,
      "asser": 2753,
      "Ġwurden": 2754,
      "ĠFrauen": 2755,
      "Ġgener": 2756,
      "Ġstopped": 2757,
      "My": 2758,
      "To": 2759,
      "dings": 2760,
      "zer": 2761,
      "Ġtill": 2762,
      "Ġhund": 2763,
      "Ġland": 2764,
      "Ġattent": 2765,
      "Ġmeet": 2766,
      "Ġfront": 2767,
      "icken": 2768,
      "ĠNamen": 2769,
      "rauen": 2770,
      "ĠGeist": 2771,
      "Ġdoubt": 2772,
      "aving": 2773,
      "fore": 2774,
      "wa": 2775,
      "Ġsw": 2776,
      "Ġsure": 2777,
      "Ġwild": 2778,
      "ĠmÃ¼": 2779,
      "iser": 2780,
      "Ġoften": 2781,
      "ĠGlÃ¼ck": 2782,
      "ĠKat": 2783,
      "illed": 2784,
      "used": 2785,
      "Ġglad": 2786,
      "Ġbecome": 2787,
      "ĠMensch": 2788,
      "Ġdream": 2789,
      "Ġentered": 2790,
      "ĠHÃ¶he": 2791,
      "ped": 2792,
      "wir": 2793,
      "wend": 2794,
      "Ġmoney": 2795,
      "Ġgele": 2796,
      "ĠMorgen": 2797,
      "umen": 2798,
      "anged": 2799,
      "ĠUr": 2800,
      "Ġthemselves": 2801,
      "Ġtrou": 2802,
      "Ġsaying": 2803,
      "Ġsilence": 2804,
      "act": 2805,
      "ivers": 2806,
      "Ġsent": 2807,
      "Ġsign": 2808,
      "ieÃŁ": 2809,
      "ede": 2810,
      "Ġopp": 2811,
      "eless": 2812,
      "Ġbeide": 2813,
      "Ġerg": 2814,
      "alten": 2815,
      "Ġanzu": 2816,
      "Ġreden": 2817,
      "Ġschrie": 2818,
      "Ġform": 2819,
      "ĠClaude": 2820,
      "ĠVerg": 2821,
      "ĠBeg": 2822,
      "pecially": 2823,
      "ĠGrund": 2824,
      "Ljewin": 2825,
      "read": 2826,
      "arten": 2827,
      "Ġeas": 2828,
      "ĠLage": 2829,
      "ĠschÃ¶": 2830,
      "ĠEl": 2831,
      "riage": 2832,
      "ĠEmpf": 2833,
      "Ġvergessen": 2834,
      "Ġtowards": 2835,
      "Ġappeared": 2836,
      "aben": 2837,
      "gten": 2838,
      "Ġmaking": 2839,
      "Ġbur": 2840,
      "Ġfour": 2841,
      "legen": 2842,
      "ande": 2843,
      "iced": 2844,
      "ennt": 2845,
      "ĠBeweg": 2846,
      "Ġopened": 2847,
      "Ġjoy": 2848,
      "fÃ¼r": 2849,
      "Ġtaking": 2850,
      "inger": 2851,
      "Ġcirc": 2852,
      "Ġposition": 2853,
      "ÃŁt": 2854,
      "Ġru": 2855,
      "essie": 2856,
      "ĠZe": 2857,
      "samkeit": 2858,
      "ĠFreude": 2859,
      "lieÃŁlich": 2860,
      "fangen": 2861,
      "erent": 2862,
      "Ġson": 2863,
      "Ġzwe": 2864,
      "head": 2865,
      "Ġeither": 2866,
      "ceed": 2867,
      "ĠTisch": 2868,
      "Ġshort": 2869,
      "Ġdeath": 2870,
      "ausend": 2871,
      "Ġcoming": 2872,
      "airfa": 2873,
      "Ġtrotz": 2874,
      "Levin": 2875,
      "airfax": 2876,
      "'d": 2877,
      "Auf": 2878,
      "ining": 2879,
      "Ġthous": 2880,
      "Ġbra": 2881,
      "recht": 2882,
      "ĠlÃ¤ng": 2883,
      "ĠSa": 2884,
      "ĠKn": 2885,
      "ĠKap": 2886,
      "uth": 2887,
      "ĠTrÃ¤": 2888,
      "ĠFÃ¼": 2889,
      "Ġgeg": 2890,
      "nehmen": 2891,
      "ĠDer": 2892,
      "olz": 2893,
      "Ġable": 2894,
      "Ġbringen": 2895,
      "weif": 2896,
      "ĠfÃ¼gte": 2897,
      "Ġgiven": 2898,
      "ĠPrincess": 2899,
      "Ġthousand": 2900,
      "ress": 2901,
      "erst": 2902,
      "Ġwon": 2903,
      "Ġmist": 2904,
      "Ġbu": 2905,
      "Ġletzten": 2906,
      "une": 2907,
      "Ġherum": 2908,
      "ĠFairfax": 2909,
      "Ġrich": 2910,
      "Ġlips": 2911,
      "Ġtimes": 2912,
      "Ġlost": 2913,
      "Ã¤nz": 2914,
      "aften": 2915,
      "kannte": 2916,
      "Un": 2917,
      "dle": 2918,
      "yed": 2919,
      "Ġele": 2920,
      "Ġwalk": 2921,
      "Ġmou": 2922,
      "Ġcorn": 2923,
      "Ġzie": 2924,
      "Ġerkl": 2925,
      "Ġvorher": 2926,
      "Ġlive": 2927,
      "hnte": 2928,
      "Ġbrachte": 2929,
      "iful": 2930,
      "Ġcourt": 2931,
      "ceived": 2932,
      "ram": 2933,
      "ett": 2934,
      "eten": 2935,
      "Ġespecially": 2936,
      "ages": 2937,
      "othe": 2938,
      "ĠAuge": 2939,
      "ĠgewiÃŁ": 2940,
      "Ġaround": 2941,
      "Ġlieb": 2942,
      "Ġpresen": 2943,
      "Ġglaube": 2944,
      "ĠPeters": 2945,
      "Ġconversation": 2946,
      "Ġpaar": 2947,
      "omais": 2948,
      "Ġern": 2949,
      "ĠMÃ¼": 2950,
      "ĠBro": 2951,
      "ended": 2952,
      "annte": 2953,
      "Ġspir": 2954,
      "Ġchar": 2955,
      "Ġbeginn": 2956,
      "Ġfeet": 2957,
      "halt": 2958,
      "ific": 2959,
      "Ġplay": 2960,
      "ĠwÃ¼rden": 2961,
      "Ġhowever": 2962,
      "Ġjeden": 2963,
      "Ġwenigstens": 2964,
      "Ġhope": 2965,
      "Ġcountry": 2966,
      "ĠLippen": 2967,
      "Ġnecessary": 2968,
      "Eine": 2969,
      "Ġought": 2970,
      "erg": 2971,
      "ances": 2972,
      "Ġhall": 2973,
      "ĠGest": 2974,
      "Ġwarf": 2975,
      "ĠTre": 2976,
      "hlt": 2977,
      "Ã¼cke": 2978,
      "rieben": 2979,
      "anger": 2980,
      "Ġbeste": 2981,
      "Ġfear": 2982,
      "Ġkept": 2983,
      "Ġbestimm": 2984,
      "Ġverlassen": 2985,
      "ĠJoe": 2986,
      "wÃ¼rd": 2987,
      "ĠPetersbur": 2988,
      "ois": 2989,
      "zn": 2990,
      "enk": 2991,
      "Ġint": 2992,
      "aufen": 2993,
      "Ġitself": 2994,
      "ĠFall": 2995,
      "that": 2996,
      "dern": 2997,
      "Ġleise": 2998,
      "Ã¤nder": 2999,
      "ĠReed": 3000,
      "Ġhalb": 3001,
      "Ġremar": 3002,
      "Ġturning": 3003,
      "Ã¤usch": 3004,
      "Ġstrange": 3005,
      "Ġacqu": 3006,
      "Ġhardly": 3007,
      "ĠGesprÃ¤ch": 3008,
      "but": 3009,
      "chsel": 3010,
      "Ġmus": 3011,
      "Ġbitte": 3012,
      "reten": 3013,
      "scher": 3014,
      "Ġstay": 3015,
      "Ġgeht": 3016,
      "indung": 3017,
      "ffe": 3018,
      "Ġbring": 3019,
      "iously": 3020,
      "Ġjemand": 3021,
      "affen": 3022,
      "pfe": 3023,
      "Ġsn": 3024,
      "ault": 3025,
      "irn": 3026,
      "ĠMary": 3027,
      "Ġsob": 3028,
      "ĠRuhe": 3029,
      "Ġneue": 3030,
      "ĠhÃ¶ren": 3031,
      "laimed": 3032,
      "Ġwished": 3033,
      "Ġpat": 3034,
      "Ġkiss": 3035,
      "ĠWar": 3036,
      "Ġallem": 3037,
      "Ġjunge": 3038,
      "Ġleben": 3039,
      "ĠStunde": 3040,
      "iert": 3041,
      "ĠStelle": 3042,
      "Ġinterest": 3043,
      "ĠHÃ¤nden": 3044,
      "Ġbereits": 3045,
      "ĠMadame": 3046,
      "Mit": 3047,
      "St": 3048,
      "Wo": 3049,
      "gl": 3050,
      "Ġselt": 3051,
      "Ġheld": 3052,
      "Ġlate": 3053,
      "Ġbell": 3054,
      "ĠAp": 3055,
      "ĠGra": 3056,
      "ĠLicht": 3057,
      "ĠTeil": 3058,
      "Ġran": 3059,
      "Ġabs": 3060,
      "Ġnachdem": 3061,
      "nisse": 3062,
      "ski": 3063,
      "Ġglaubte": 3064,
      "vok": 3065,
      "Ġbleiben": 3066,
      "durch": 3067,
      "hst": 3068,
      "Ġsix": 3069,
      "iety": 3070,
      "ichtet": 3071,
      "Ġcase": 3072,
      "Ġcross": 3073,
      "ĠBÃ¼": 3074,
      "ĠFam": 3075,
      "âĢº": 3076,
      "Ġimag": 3077,
      "ume": 3078,
      "Ġexpression": 3079,
      "ĠChr": 3080,
      "Ġcompan": 3081,
      "ĠÃĦ": 3082,
      "Ġtalking": 3083,
      "ĠFeuer": 3084,
      "ĠZigeunerin": 3085,
      "wie": 3086,
      "ering": 3087,
      "inken": 3088,
      "eint": 3089,
      "Ã¼cht": 3090,
      "Ã¼tz": 3091,
      "ĠKarl": 3092,
      "Ġverz": 3093,
      "Ġgegeben": 3094,
      "Ġrais": 3095,
      "Ġsever": 3096,
      "rible": 3097,
      "Ġdarin": 3098,
      "Ġyourself": 3099,
      "Ġperhaps": 3100,
      "Ġjene": 3101,
      "Ġtears": 3102,
      "scheinlich": 3103,
      "Ġsurpr": 3104,
      "Ġsecond": 3105,
      "Ġpresent": 3106,
      "ium": 3107,
      "ĠhÃ¼b": 3108,
      "Ġnein": 3109,
      "ĠnÃ¤ch": 3110,
      "ĠGel": 3111,
      "ĠWasser": 3112,
      "Ġunver": 3113,
      "ĠRei": 3114,
      "Ġdoctor": 3115,
      "ierte": 3116,
      "selbe": 3117,
      "Ġhinauf": 3118,
      "ĠArm": 3119,
      "Ġthoughts": 3120,
      "Ġemp": 3121,
      "Ġpleasure": 3122,
      "Ġreturned": 3123,
      "Ġdaugh": 3124,
      "cri": 3125,
      "sy": 3126,
      "inde": 3127,
      "Ġdri": 3128,
      "Ġben": 3129,
      "Ġuse": 3130,
      "ette": 3131,
      "utz": 3132,
      "ĠHaar": 3133,
      "Ġreached": 3134,
      "Ġreason": 3135,
      "ĠDame": 3136,
      "Ġstets": 3137,
      "Ġhalten": 3138,
      "Ġsolchen": 3139,
      "ehm": 3140,
      "Ġclose": 3141,
      "ĠBoden": 3142,
      "bare": 3143,
      "Ġsonst": 3144,
      "hev": 3145,
      "ĠWas": 3146,
      "ĠRom": 3147,
      "Ġleicht": 3148,
      "wegen": 3149,
      "ĠMenge": 3150,
      "Ġthinking": 3151,
      "Ġhorse": 3152,
      "kannt": 3153,
      "ĠbeschÃ¤ft": 3154,
      "ĠFÃ¼rstin": 3155,
      "haupt": 3156,
      "ĠFamil": 3157,
      "ning": 3158,
      "use": 3159,
      "wor": 3160,
      "zig": 3161,
      "inal": 3162,
      "Ġsun": 3163,
      "Ġop": 3164,
      "Ġerre": 3165,
      "ĠAm": 3166,
      "ĠMan": 3167,
      "Ġeil": 3168,
      "ĠHimm": 3169,
      "blieben": 3170,
      "Ġdeep": 3171,
      "riester": 3172,
      "aÃŁt": 3173,
      "ĠPerson": 3174,
      "After": 3175,
      "gang": 3176,
      "mÃ¤ÃŁ": 3177,
      "Ġhung": 3178,
      "Ġmad": 3179,
      "Ã¼ster": 3180,
      "Ġpap": 3181,
      "Ġbeaut": 3182,
      "Ã¶h": 3183,
      "ĠdafÃ¼r": 3184,
      "ĠTo": 3185,
      "ĠTod": 3186,
      "Ġschool": 3187,
      "ĠRou": 3188,
      "iling": 3189,
      "ĠDar": 3190,
      "bles": 3191,
      "reiben": 3192,
      "Ġprin": 3193,
      "Ġpeas": 3194,
      "Ġviele": 3195,
      "Ġfamily": 3196,
      "Ġidea": 3197,
      "ĠCharles": 3198,
      "Ch": 3199,
      "hann": 3200,
      "rat": 3201,
      "ror": 3202,
      "Ġsleep": 3203,
      "Ġtas": 3204,
      "itze": 3205,
      "stra": 3206,
      "stood": 3207,
      "Ġzwar": 3208,
      "Ġpu": 3209,
      "aub": 3210,
      "Ġwhis": 3211,
      "Ġherab": 3212,
      "ĠHomais": 3213,
      "amed": 3214,
      "Ġref": 3215,
      "lov": 3216,
      "Ġsuper": 3217,
      "Ġprop": 3218,
      "geste": 3219,
      "ehmen": 3220,
      "kunft": 3221,
      "Am": 3222,
      "Is": 3223,
      "hÃ¤lt": 3224,
      "ok": 3225,
      "ux": 3226,
      "ville": 3227,
      "yd": 3228,
      "inden": 3229,
      "Ġsqu": 3230,
      "ĠdÃ¼r": 3231,
      "Ġcry": 3232,
      "Ã¤us": 3233,
      "Ġerste": 3234,
      "tened": 3235,
      "ime": 3236,
      "imes": 3237,
      "ĠGen": 3238,
      "endes": 3239,
      "ĠSchla": 3240,
      "ĠZu": 3241,
      "Ġdear": 3242,
      "yshev": 3243,
      "Ġbreath": 3244,
      "ĠlÃ¤chelnd": 3245,
      "medi": 3246,
      "Ġpower": 3247,
      "znyshev": 3248,
      "ex": 3249,
      "frieden": 3250,
      "Ã¨": 3251,
      "Ġthus": 3252,
      "Ġcand": 3253,
      "Ġcrow": 3254,
      "ĠShe": 3255,
      "ĠSeit": 3256,
      "Ã¤uf": 3257,
      "Ġpol": 3258,
      "Ġpict": 3259,
      "Ġkr": 3260,
      "ĠkÃ¼": 3261,
      "ths": 3262,
      "Ġjungen": 3263,
      "Ġforget": 3264,
      "ĠPriester": 3265,
      "Ġdeut": 3266,
      "Ġord": 3267,
      "ĠRecht": 3268,
      "Ġdisp": 3269,
      "Ġused": 3270,
      "Ġsuchte": 3271,
      "Ġendlich": 3272,
      "Ġcover": 3273,
      "Ġzeigte": 3274,
      "ĠAdvok": 3275,
      "ĠTages": 3276,
      "Ġlawyer": 3277,
      "ĠglÃ¼cklich": 3278,
      "onstantin": 3279,
      "Ġbeginning": 3280,
      "nten": 3281,
      "ĠY": 3282,
      "ery": 3283,
      "ens": 3284,
      "Ġsitting": 3285,
      "Ġtrug": 3286,
      "Ġfal": 3287,
      "Ġfrei": 3288,
      "genden": 3289,
      "vern": 3290,
      "merz": 3291,
      "osed": 3292,
      "ĠJahr": 3293,
      "riv": 3294,
      "Ġbefand": 3295,
      "Ã¤rt": 3296,
      "Ġboy": 3297,
      "zieh": 3298,
      "ĠEngl": 3299,
      "ĠPetersburg": 3300,
      "iers": 3301,
      "osen": 3302,
      "Ġdinner": 3303,
      "Ġmurm": 3304,
      "reat": 3305,
      "aring": 3306,
      "unst": 3307,
      "ution": 3308,
      "ĠDamen": 3309,
      "Ġexam": 3310,
      "iene": 3311,
      "ĠErinner": 3312,
      "Ġprom": 3313,
      "where": 3314,
      "rugg": 3315,
      "Ġquickly": 3316,
      "Ġtrue": 3317,
      "lung": 3318,
      "yps": 3319,
      "etter": 3320,
      "Ġdahin": 3321,
      "ĠBessie": 3322,
      "Ġstone": 3323,
      "ilos": 3324,
      "ility": 3325,
      "Ġchange": 3326,
      "Ġmoved": 3327,
      "blickte": 3328,
      "Ġusual": 3329,
      "Ġimpossible": 3330,
      "Ġexclaimed": 3331,
      "ĠItal": 3332,
      "Ġrepeated": 3333,
      "ilosop": 3334,
      "Hier": 3335,
      "cy": 3336,
      "field": 3337,
      "Ġhoch": 3338,
      "Ġment": 3339,
      "Ġmacht": 3340,
      "anced": 3341,
      "Ġgall": 3342,
      "Ġlangen": 3343,
      "ements": 3344,
      "Ġdadurch": 3345,
      "Ġstate": 3346,
      "though": 3347,
      "ĠWohn": 3348,
      "ils": 3349,
      "Ġimmedi": 3350,
      "Ġexpect": 3351,
      "Ġwond": 3352,
      "ĠWeg": 3353,
      "Ġview": 3354,
      "stÃ¤ndig": 3355,
      "Ġtrem": 3356,
      "ĠlÃ¤chelte": 3357,
      "Warum": 3358,
      ".âĢ¹": 3359,
      "Wer": 3360,
      "bten": 3361,
      "cul": 3362,
      "tter": 3363,
      "inen": 3364,
      "Ġtone": 3365,
      "Ġhon": 3366,
      "Ġmerk": 3367,
      "itzen": 3368,
      "ities": 3369,
      "rew": 3370,
      "Ġlady": 3371,
      "Ġcra": 3372,
      "urs": 3373,
      "auber": 3374,
      "Ġsagt": 3375,
      "enty": 3376,
      "amp": 3377,
      "ĠWesen": 3378,
      "very": 3379,
      "Ġsech": 3380,
      "ĠDinge": 3381,
      "Ġhinunter": 3382,
      "Ġlief": 3383,
      "Ġunderstood": 3384,
      "ĠhÃ¤tten": 3385,
      "ufel": 3386,
      "Ġsilent": 3387,
      "Ġslow": 3388,
      "Ġoccup": 3389,
      "Ġclosed": 3390,
      "Ġbeneath": 3391,
      "Ġbeautiful": 3392,
      "Here": 3393,
      "Ist": 3394,
      "cap": 3395,
      "cious": 3396,
      "ek": 3397,
      "piel": 3398,
      "Ġ1": 3399,
      "Ġaf": 3400,
      "Ġsight": 3401,
      "asche": 3402,
      "Ġgyps": 3403,
      "Ã¤he": 3404,
      "Ġposs": 3405,
      "Ġerf": 3406,
      "ĠMein": 3407,
      "Ġcharm": 3408,
      "lace": 3409,
      "Ġarr": 3410,
      "ĠArch": 3411,
      "Ġlieber": 3412,
      "Ġliebe": 3413,
      "akes": 3414,
      "stande": 3415,
      "Ġkamen": 3416,
      "Ã¤nge": 3417,
      "Ġspeaking": 3418,
      "Ġbreak": 3419,
      "ĠBlicke": 3420,
      "Ġstraight": 3421,
      "gegnete": 3422,
      "Ġforgot": 3423,
      "Ġcalm": 3424,
      "kel": 3425,
      "phe": 3426,
      "sinn": 3427,
      "itude": 3428,
      "Ġfle": 3429,
      "Ã¤ter": 3430,
      "unken": 3431,
      "cky": 3432,
      "ĠMonsieur": 3433,
      "ĠBar": 3434,
      "ĠTrau": 3435,
      "olle": 3436,
      "Ġsucc": 3437,
      "ischer": 3438,
      "Ġcontr": 3439,
      "ĠKopfe": 3440,
      "ĠmÃ¼sse": 3441,
      "ĠnatÃ¼rlich": 3442,
      "ĠÃ¤uÃŁ": 3443,
      "ĠMinuten": 3444,
      "Ġattention": 3445,
      "Dame": 3446,
      "Fr": 3447,
      "HE": 3448,
      "gung": 3449,
      "oÃŁ": 3450,
      "tra": 3451,
      "Ġap": 3452,
      "Ġfurcht": 3453,
      "org": 3454,
      "ĠvÃ¶": 3455,
      "Ġcor": 3456,
      "Ġcent": 3457,
      "idi": 3458,
      "ĠKleid": 3459,
      "ĠBrief": 3460,
      "ĠHut": 3461,
      "ĠLou": 3462,
      "Ġrid": 3463,
      "Ġnoticed": 3464,
      "ĠSchwe": 3465,
      "Ã¶rper": 3466,
      "heiten": 3467,
      "wards": 3468,
      "iana": 3469,
      "Ġdifferent": 3470,
      "WÃ¤hrend": 3471,
      "bild": 3472,
      "hand": 3473,
      "oe": 3474,
      "pted": 3475,
      "you": 3476,
      "ĠÃ¤r": 3477,
      "Ġwood": 3478,
      "Ġled": 3479,
      "Ã¼gel": 3480,
      "Ġangen": 3481,
      "rov": 3482,
      "ending": 3483,
      "bling": 3484,
      "ĠVerz": 3485,
      "Ġtherefore": 3486,
      "Ġtrying": 3487,
      "Ġsteps": 3488,
      "ertig": 3489,
      "standen": 3490,
      "Ġversetzte": 3491,
      "regung": 3492,
      "Ġhappy": 3493,
      "Ġopin": 3494,
      "II": 3495,
      "Mein": 3496,
      "Not": 3497,
      "richt": 3498,
      "uff": 3499,
      "Ġacht": 3500,
      "Ġdeine": 3501,
      "Ġthun": 3502,
      "Ġfore": 3503,
      "Ġvag": 3504,
      "Ġzitter": 3505,
      "Ġbek": 3506,
      "iment": 3507,
      "Ġdamals": 3508,
      "ĠBesch": 3509,
      "ĠTone": 3510,
      "Ġvern": 3511,
      "ĠPfl": 3512,
      "ftig": 3513,
      "otion": 3514,
      "Ġdead": 3515,
      "antly": 3516,
      "Ġmeinte": 3517,
      "ĠArme": 3518,
      "Ġsteht": 3519,
      "Ã¼ttel": 3520,
      "Ġevid": 3521,
      "mÃ¶glich": 3522,
      "Ġerhob": 3523,
      "ĠNotre": 3524,
      "ĠheiÃŁt": 3525,
      "ĠTreppe": 3526,
      "ĠChrist": 3527,
      "Ġdaughter": 3528,
      "fahr": 3529,
      "side": 3530,
      "Ġtem": 3531,
      "iebt": 3532,
      "Ġfig": 3533,
      "Ġeinander": 3534,
      "Ã¤hr": 3535,
      "Ġpast": 3536,
      "unkt": 3537,
      "eth": 3538,
      "Ã¶s": 3539,
      "ĠLuft": 3540,
      "Ġverb": 3541,
      "Ġmeant": 3542,
      "Ġdeshalb": 3543,
      "Ġlearn": 3544,
      "ĠStadt": 3545,
      "aused": 3546,
      "ĠThorn": 3547,
      "Ġdrawing": 3548,
      "Ġvisit": 3549,
      "brigens": 3550,
      "Come": 3551,
      "IN": 3552,
      "fied": 3553,
      "ching": 3554,
      "Ġbar": 3555,
      "Ġgute": 3556,
      "Ġgrow": 3557,
      "Ġlab": 3558,
      "ĠMa": 3559,
      "ĠMon": 3560,
      "ĠBer": 3561,
      "Ġaufge": 3562,
      "Ġdoing": 3563,
      "ĠÃ¼berhaupt": 3564,
      "ĠvorÃ¼ber": 3565,
      "ĠAnn": 3566,
      "nahm": 3567,
      "Ġgesprochen": 3568,
      "Ġrespect": 3569,
      "Ġwaiting": 3570,
      "Ġplease": 3571,
      "Ġverschieden": 3572,
      "Ġcertainly": 3573,
      "ĠTeufel": 3574,
      "ĠhÃ¶ch": 3575,
      "Ġhuman": 3576,
      "Ġkurz": 3577,
      "ĠVergnÃ¼": 3578,
      "ĠBewegung": 3579,
      "ĠApothe": 3580,
      "ĠThornfield": 3581,
      "Kitty": 3582,
      "Se": 3583,
      "ght": 3584,
      "hte": 3585,
      "erv": 3586,
      "reis": 3587,
      "atte": 3588,
      "ĠSohn": 3589,
      "ĠGrÃ¤": 3590,
      "Ġherein": 3591,
      "ĠKraft": 3592,
      "Ġverst": 3593,
      "Ġrap": 3594,
      "Ġspread": 3595,
      "ĠStirn": 3596,
      "itel": 3597,
      "ochter": 3598,
      "Ġgenau": 3599,
      "Ġglauben": 3600,
      "Ġyear": 3601,
      "Ġspoke": 3602,
      "Ġeinfach": 3603,
      "Ġdifficult": 3604,
      "Ġmouth": 3605,
      "Ġimmediately": 3606,
      "hme": 3607,
      "lassen": 3608,
      "rit": 3609,
      "vel": 3610,
      "Ġhing": 3611,
      "Ġbody": 3612,
      "ising": 3613,
      "Ġnahe": 3614,
      "Ã¼ge": 3615,
      "Ġvi": 3616,
      "Ġpie": 3617,
      "ĠGal": 3618,
      "ĠMÃ¤n": 3619,
      "ĠMiene": 3620,
      "ĠBÃ¼r": 3621,
      "Ġyes": 3622,
      "Ġward": 3623,
      "Ġschreck": 3624,
      "ĠSchne": 3625,
      "umed": 3626,
      "irtschaft": 3627,
      "ĠMittel": 3628,
      "ĠWirk": 3629,
      "ĠSeiten": 3630,
      "Ġgypsy": 3631,
      "ior": 3632,
      "ric": 3633,
      "sa": 3634,
      "viel": 3635,
      "yre": 3636,
      "nden": 3637,
      "ones": 3638,
      "Ġglo": 3639,
      "stern": 3640,
      "Ġpfle": 3641,
      "ĠKer": 3642,
      "Ġready": 3643,
      "ĠWahr": 3644,
      "Ġallgem": 3645,
      "Ġsehe": 3646,
      "ĠStre": 3647,
      "ored": 3648,
      "Ġlived": 3649,
      "Ã¼ckt": 3650,
      "lief": 3651,
      "Ġenc": 3652,
      "fÃ¼hrt": 3653,
      "ĠThat": 3654,
      "Ġweniger": 3655,
      "Ġjenem": 3656,
      "Ġletter": 3657,
      "retched": 3658,
      "Ġrecog": 3659,
      "ĠAdele": 3660,
      "ĠBesuch": 3661,
      "ĠJohann": 3662,
      "Ġeffort": 3663,
      "Ġhappened": 3664,
      "aven": 3665,
      "vol": 3666,
      "Ġdiv": 3667,
      "Ġutter": 3668,
      "Ġfertig": 3669,
      "Ġport": 3670,
      "ĠMÃ¶": 3671,
      "schau": 3672,
      "ama": 3673,
      "deacon": 3674,
      "--\"": 3675,
      "ĠJac": 3676,
      "Ġlieben": 3677,
      "Ġentire": 3678,
      "Ġentgegen": 3679,
      "tess": 3680,
      "Ġgering": 3681,
      "Ġfreund": 3682,
      "ĠGedanke": 3683,
      "Ġtraur": 3684,
      "Ġlangsam": 3685,
      "Ġschlug": 3686,
      "Ġarchite": 3687,
      "Ġimportant": 3688,
      "weifel": 3689,
      "ĠArchidi": 3690,
      "Ġsuccess": 3691,
      "Bei": 3692,
      "Ste": 3693,
      "Seine": 3694,
      "app": 3695,
      "ole": 3696,
      "Ġ~": 3697,
      "Ġbekommen": 3698,
      "ĠAll": 3699,
      "Ġwarum": 3700,
      "ĠEyre": 3701,
      "Ġunten": 3702,
      "ains": 3703,
      "Ġshow": 3704,
      "Ġliving": 3705,
      "ĠAnblick": 3706,
      "Ġquar": 3707,
      "Ġdurchaus": 3708,
      "brach": 3709,
      "Ġground": 3710,
      "Ġobser": 3711,
      "igkeiten": 3712,
      "ĠGeschichte": 3713,
      "Ġpartic": 3714,
      "Ġminutes": 3715,
      "wÃ¤rts": 3716,
      "Ġcorner": 3717,
      "ydia": 3718,
      "appe": 3719,
      "co": 3720,
      "vi": 3721,
      "Ġwunder": 3722,
      "Ġhar": 3723,
      "Ġmat": 3724,
      "Ġbott": 3725,
      "Ġnam": 3726,
      "Ġpay": 3727,
      "Ġbeob": 3728,
      "ury": 3729,
      "Ġsold": 3730,
      "ĠHil": 3731,
      "ĠTochter": 3732,
      "Ġverw": 3733,
      "Ġverlie": 3734,
      "Ġstruck": 3735,
      "essing": 3736,
      "Ġneck": 3737,
      "ĠZust": 3738,
      "Ġliked": 3739,
      "Ġchair": 3740,
      "ĠCoun": 3741,
      "Ġentfern": 3742,
      "Ġprince": 3743,
      "Ġloved": 3744,
      "baren": 3745,
      "Ġsmiled": 3746,
      "Ġjedes": 3747,
      "Ġjedoch": 3748,
      "Ġgibt": 3749,
      "Ġconsidered": 3750,
      "Ġoffenbar": 3751,
      "Ġsubject": 3752,
      "ĠVolk": 3753,
      "Ġhundred": 3754,
      "ĠMÃ¼he": 3755,
      "Ġseveral": 3756,
      "With": 3757,
      "ebus": 3758,
      "hund": 3759,
      "uc": 3760,
      "Ġshr": 3761,
      "Ġtou": 3762,
      "Ġweder": 3763,
      "orten": 3764,
      "Ġobl": 3765,
      "Ġtown": 3766,
      "igend": 3767,
      "ĠAg": 3768,
      "aded": 3769,
      "Ġunp": 3770,
      "Ġspiel": 3771,
      "ager": 3772,
      "angt": 3773,
      "Ġstellte": 3774,
      "immung": 3775,
      "Ġgingen": 3776,
      "ĠAlexandrowna": 3777,
      "folge": 3778,
      "ĠStraÃŁe": 3779,
      "Ġbetrachtete": 3780,
      "ĠKoznyshev": 3781,
      "Alex": 3782,
      "Gr": 3783,
      "Let": 3784,
      "fang": 3785,
      "wers": 3786,
      "ination": 3787,
      "ism": 3788,
      "Ġlas": 3789,
      "Ġcut": 3790,
      "Ġcol": 3791,
      "ĠBÃ¤": 3792,
      "ĠBew": 3793,
      "schaften": 3794,
      "ĠFrÃ¼": 3795,
      "ĠunmÃ¶glich": 3796,
      "ĠStÃ¼ck": 3797,
      "Ġglass": 3798,
      "reifen": 3799,
      "Ġunsere": 3800,
      "Ġsollen": 3801,
      "ĠBetsy": 3802,
      "Ġhorses": 3803,
      "kannten": 3804,
      "Ġfolgte": 3805,
      "Ġladies": 3806,
      "Ġindeed": 3807,
      "ĠTrÃ¤nen": 3808,
      "Nicht": 3809,
      "kau": 3810,
      "night": 3811,
      "ines": 3812,
      "Ġburn": 3813,
      "Ġfive": 3814,
      "Ġcoun": 3815,
      "Ġsad": 3816,
      "ĠInd": 3817,
      "Ã¶bus": 3818,
      "Ġeuch": 3819,
      "ĠHoff": 3820,
      "Ġsicher": 3821,
      "ĠLydia": 3822,
      "Ġgehe": 3823,
      "essel": 3824,
      "ĠEind": 3825,
      "Ġalter": 3826,
      "Ġunt": 3827,
      "Ġest": 3828,
      "ĠRicht": 3829,
      "Ġexpected": 3830,
      "Ġentgegnete": 3831,
      "ilde": 3832,
      "Ġprof": 3833,
      "Ġgrew": 3834,
      "ixed": 3835,
      "Ġarchdeacon": 3836,
      "ziehen": 3837,
      "ĠPferde": 3838,
      "ĠunglÃ¼ck": 3839,
      "Ġwiederholte": 3840,
      "Ġtrouble": 3841,
      "ĠFamilie": 3842,
      "Ġwhisper": 3843,
      "ĠvÃ¶llig": 3844,
      "Ġarchitect": 3845,
      "gy": 3846,
      "jo": 3847,
      "wart": 3848,
      "zed": 3849,
      "teten": 3850,
      "ased": 3851,
      "Ġpale": 3852,
      "Ġsays": 3853,
      "ĠMittag": 3854,
      "Ã¶pf": 3855,
      "seits": 3856,
      "Ġwithin": 3857,
      "endet": 3858,
      "raid": 3859,
      "Ġformer": 3860,
      "ĠDu": 3861,
      "ĠDom": 3862,
      "pping": 3863,
      "que": 3864,
      "Ġdef": 3865,
      "ienen": 3866,
      "Ġroof": 3867,
      "Ġtruth": 3868,
      "Ġcomple": 3869,
      "athed": 3870,
      "ĠdrÃ¼ckte": 3871,
      "hoebus": 3872,
      "Ġgefunden": 3873,
      "Ġterrible": 3874,
      "ĠÃ¶ffnete": 3875,
      "Ġraised": 3876,
      "Huck": 3877,
      "ring": 3878,
      "uous": 3879,
      "Ġwid": 3880,
      "Ġwalked": 3881,
      "Ġmor": 3882,
      "ony": 3883,
      "str": 3884,
      "Ġerhalten": 3885,
      "Ġheil": 3886,
      "roll": 3887,
      "ĠLei": 3888,
      "Ġstart": 3889,
      "Ġschau": 3890,
      "annt": 3891,
      "Ġfresh": 3892,
      "ump": 3893,
      "ctly": 3894,
      "Ġexcept": 3895,
      "Ġarme": 3896,
      "Ġobgleich": 3897,
      "Ã¼nst": 3898,
      "Ġdrew": 3899,
      "Ġallerdings": 3900,
      "Ġlistened": 3901,
      "Ġremembered": 3902,
      "Ġstrength": 3903,
      "Ġjudge": 3904,
      "ĠUnglÃ¼ck": 3905,
      "ĠGestalt": 3906,
      "Ġcrowd": 3907,
      "Me": 3908,
      "by": 3909,
      "ufen": 3910,
      "eni": 3911,
      "Ġsym": 3912,
      "Ġmann": 3913,
      "Ġur": 3914,
      "Ġinn": 3915,
      "Ġanderes": 3916,
      "aught": 3917,
      "ĠIng": 3918,
      "ĠTon": 3919,
      "Ġgeblieben": 3920,
      "Ġmeans": 3921,
      "ickt": 3922,
      "ĠStr": 3923,
      "ctions": 3924,
      "Ġausge": 3925,
      "ulein": 3926,
      "Ġmeines": 3927,
      "ĠJahren": 3928,
      "ĠVerhÃ¤lt": 3929,
      "Ġwelchen": 3930,
      "rÃ¤ulein": 3931,
      "Ġgesche": 3932,
      "Ġmov": 3933,
      "weilen": 3934,
      "Ġlock": 3935,
      "ĠfÃ¼hrte": 3936,
      "Ġgetan": 3937,
      "Ġetwa": 3938,
      "Ġadm": 3939,
      "Ġsatis": 3940,
      "ĠPrince": 3941,
      "Ġnatur": 3942,
      "Ġfloor": 3943,
      "Ġerinnerte": 3944,
      "ĠGrÃ¤fin": 3945,
      "frau": 3946,
      "ues": 3947,
      "Ġten": 3948,
      "Ġbein": 3949,
      "Ġoben": 3950,
      "Ġlater": 3951,
      "Ġcou": 3952,
      "Ġbemer": 3953,
      "ĠMund": 3954,
      "Ġherr": 3955,
      "ĠHal": 3956,
      "Ġalthough": 3957,
      "ices": 3958,
      "Ġdeal": 3959,
      "ĠJust": 3960,
      "ards": 3961,
      "Dieser": 3962,
      "ĠweiÃŁen": 3963,
      "Ġflow": 3964,
      "ĠStein": 3965,
      "ively": 3966,
      "Ġverschw": 3967,
      "Ġmensch": 3968,
      "ĠBauern": 3969,
      "Ġberuh": 3970,
      "ĠDiener": 3971,
      "ĠVergnÃ¼gen": 3972,
      "Don": 3973,
      "Nur": 3974,
      "Zu": 3975,
      "abe": 3976,
      "jest": 3977,
      "mm": 3978,
      "ugen": 3979,
      "enne": 3980,
      "Ġdest": 3981,
      "Ġdrau": 3982,
      "Ġdunk": 3983,
      "Ġduring": 3984,
      "teen": 3985,
      "icher": 3986,
      "Ġmel": 3987,
      "Ġmem": 3988,
      "rech": 3989,
      "ĠnÃ¤m": 3990,
      "ĠnÃ¶t": 3991,
      "Ġinqu": 3992,
      "elen": 3993,
      "ĠSpr": 3994,
      "Ġpill": 3995,
      "Ġkennen": 3996,
      "enth": 3997,
      "Ġvert": 3998,
      "ĠFinger": 3999,
      "ĠWill": 4000,
      "ĠschlieÃŁlich": 4001,
      "Ġaufzu": 4002,
      "ĠSchatten": 4003,
      "umpf": 4004,
      "ollen": 4005,
      "Ġago": 4006,
      "Ã¤rm": 4007,
      "Ġgetting": 4008,
      "ĠReg": 4009,
      "Ġsmiling": 4010,
      "Ġboys": 4011,
      "Ġstanden": 4012,
      "Ġstanding": 4013,
      "Ġpret": 4014,
      "ĠvollstÃ¤ndig": 4015,
      "Ġwindows": 4016,
      "Ġhappiness": 4017,
      "ĠPferd": 4018,
      "Ġmiddle": 4019,
      "Ġpresence": 4020,
      "Ġcharac": 4021,
      "Ġslowly": 4022,
      "Ġparticular": 4023,
      "!âĢ¹": 4024,
      "Alle": 4025,
      "Bes": 4026,
      "aw": 4027,
      "oth": 4028,
      "Ġbele": 4029,
      "Ġgaz": 4030,
      "outed": 4031,
      "igten": 4032,
      "Ġheav": 4033,
      "ĠKonstantin": 4034,
      "ĠFurcht": 4035,
      "Ġrequ": 4036,
      "Ġrichtig": 4037,
      "Ġschar": 4038,
      "Ġschwe": 4039,
      "Ġjung": 4040,
      "Ġspl": 4041,
      "ĠStunden": 4042,
      "kennen": 4043,
      "Ġsuchen": 4044,
      "Ġglance": 4045,
      "ĠOber": 4046,
      "Ġklar": 4047,
      "Ġprob": 4048,
      "ission": 4049,
      "Ġpleased": 4050,
      "Ġverloren": 4051,
      "Ġaccount": 4052,
      "ails": 4053,
      "ancing": 4054,
      "Ġdecided": 4055,
      "Ġearth": 4056,
      "ĠStraÃŁen": 4057,
      "ĠHimmel": 4058,
      "Ġafraid": 4059,
      "Dar": 4060,
      "kte": 4061,
      "ments": 4062,
      "zel": 4063,
      "ĠtrÃ¤": 4064,
      "esse": 4065,
      "Ġmine": 4066,
      "orben": 4067,
      "Ġinfl": 4068,
      "Ġbewe": 4069,
      "tended": 4070,
      "ĠKing": 4071,
      "ĠTem": 4072,
      "Ġunwill": 4073,
      "Ġauszu": 4074,
      "ightly": 4075,
      "herr": 4076,
      "ĠNik": 4077,
      "ĠNatur": 4078,
      "ope": 4079,
      "zeich": 4080,
      "ĠArzt": 4081,
      "Ġstep": 4082,
      "Who": 4083,
      "bringen": 4084,
      "Ġreply": 4085,
      "Ġsprang": 4086,
      "Also": 4087,
      "Ġsonder": 4088,
      "ĠFranz": 4089,
      "Ġneuem": 4090,
      "Ġfellow": 4091,
      "ĠBrust": 4092,
      "Ġfallen": 4093,
      "aconus": 4094,
      "ĠgewÃ¶hnlich": 4095,
      "Ġeasy": 4096,
      "chmal": 4097,
      "Ġhob": 4098,
      "iegen": 4099,
      "esten": 4100,
      "Ġert": 4101,
      "ĠGru": 4102,
      "schied": 4103,
      "Ġuner": 4104,
      "ĠPet": 4105,
      "ney": 4106,
      "ottes": 4107,
      "anzig": 4108,
      "anging": 4109,
      "Ġexper": 4110,
      "lafen": 4111,
      "Ġdarf": 4112,
      "Ġfair": 4113,
      "Ġdrink": 4114,
      "Ġgarden": 4115,
      "Ġlaut": 4116,
      "Ġcarriage": 4117,
      "Quasimodo": 4118,
      "Ġcloth": 4119,
      "Ġeinzige": 4120,
      "Ġappear": 4121,
      "Ġtrial": 4122,
      "Ġhours": 4123,
      "Ġverstehen": 4124,
      "ĠMeister": 4125,
      "Ġgentlemen": 4126,
      "ĠAngelegenheit": 4127,
      "ĠschÃ¶nen": 4128,
      "ĠnÃ¤chsten": 4129,
      "ĠErinnerung": 4130,
      "Ġopinion": 4131,
      "dien": 4132,
      "ius": 4133,
      "ply": 4134,
      "prechen": 4135,
      "van": 4136,
      "ina": 4137,
      "Ġbit": 4138,
      "reise": 4139,
      "asten": 4140,
      "oured": 4141,
      "elbst": 4142,
      "Ġbear": 4143,
      "heure": 4144,
      "hrer": 4145,
      "Ġkom": 4146,
      "ĠKrie": 4147,
      "erei": 4148,
      "Ġwarm": 4149,
      "theless": 4150,
      "ĠWh": 4151,
      "ĠPal": 4152,
      "ĠSchuld": 4153,
      "uche": 4154,
      "icks": 4155,
      "Ġshad": 4156,
      "Ġshouted": 4157,
      "Ġumher": 4158,
      "uÃŁt": 4159,
      "ĠCo": 4160,
      "Ġworth": 4161,
      "ĠVerb": 4162,
      "achtet": 4163,
      "rÃ¤cht": 4164,
      "Ġbeside": 4165,
      "werk": 4166,
      "Ġunser": 4167,
      "Ġkannst": 4168,
      "Ġgenommen": 4169,
      "Ġiron": 4170,
      "Ġversuchte": 4171,
      "ized": 4172,
      "hof": 4173,
      "fÃ¤hr": 4174,
      "gegangen": 4175,
      "Ġseltsam": 4176,
      "ĠSchlaf": 4177,
      "ĠMeinung": 4178,
      "ĠEindruck": 4179,
      "Um": 4180,
      "Wronski": 4181,
      "ciety": 4182,
      "eben": 4183,
      "haus": 4184,
      "setzen": 4185,
      "int": 4186,
      "Ġsan": 4187,
      "Ġmil": 4188,
      "ĠbÃ¶": 4189,
      "ingly": 4190,
      "Ġanim": 4191,
      "ĠIvan": 4192,
      "ĠMus": 4193,
      "schw": 4194,
      "ĠTro": 4195,
      "Ġstir": 4196,
      "Ġstatt": 4197,
      "Ġsepar": 4198,
      "dete": 4199,
      "erste": 4200,
      "Ġnurse": 4201,
      "mehr": 4202,
      "Ġfahren": 4203,
      "acken": 4204,
      "idenschaft": 4205,
      "ĠStellung": 4206,
      "sichtig": 4207,
      "ehan": 4208,
      "Ġcarry": 4209,
      "Ġstrong": 4210,
      "ĠGericht": 4211,
      "what": 4212,
      "Ġzerst": 4213,
      "Ġcaptain": 4214,
      "Ġfingers": 4215,
      "ĠPeter": 4216,
      "ĠDienst": 4217,
      "like": 4218,
      "Ġspirit": 4219,
      "Ġevidently": 4220,
      "ĠArchidiaconus": 4221,
      "Pl": 4222,
      "kn": 4223,
      "mÃ¼": 4224,
      "mlich": 4225,
      "mÃ¼t": 4226,
      "rt": 4227,
      "ugend": 4228,
      "Ġdet": 4229,
      "ested": 4230,
      "Ġmed": 4231,
      "Ġmorgen": 4232,
      "ital": 4233,
      "Ġbig": 4234,
      "Ġbent": 4235,
      "Ġball": 4236,
      "onnen": 4237,
      "Ġvill": 4238,
      "Ġcause": 4239,
      "Ġeinge": 4240,
      "letz": 4241,
      "alth": 4242,
      "ĠTur": 4243,
      "ĠFel": 4244,
      "ĠWorten": 4245,
      "ĠVaren": 4246,
      "ĠDann": 4247,
      "ĠSchÃ¶n": 4248,
      "ĠZwe": 4249,
      "ĠspÃ¤ter": 4250,
      "blic": 4251,
      "rik": 4252,
      "Ġexp": 4253,
      "Ġwillst": 4254,
      "Ġanyone": 4255,
      "Ġproceed": 4256,
      "cial": 4257,
      "Ġinterru": 4258,
      "Ġsometimes": 4259,
      "Ġbelong": 4260,
      "Ġstreet": 4261,
      "ĠÃ¤hn": 4262,
      "Nachdem": 4263,
      "Ġholding": 4264,
      "Ġsweet": 4265,
      "Ġgeneral": 4266,
      "ĠCountess": 4267,
      "?âĢ¹": 4268,
      "Jane": 4269,
      "eper": 4270,
      "ift": 4271,
      "lang": 4272,
      "wig": 4273,
      "ieb": 4274,
      "ĠmÃ¤cht": 4275,
      "Ġbank": 4276,
      "Ġfree": 4277,
      "Ġfilled": 4278,
      "ator": 4279,
      "Ġtop": 4280,
      "Ġpun": 4281,
      "Ġerkannte": 4282,
      "Ġaugen": 4283,
      "idly": 4284,
      "ims": 4285,
      "ĠMich": 4286,
      "ĠMill": 4287,
      "Ġsieht": 4288,
      "ĠBank": 4289,
      "ammer": 4290,
      "ĠThr": 4291,
      "Ġescap": 4292,
      "alle": 4293,
      "zug": 4294,
      "Ġwobei": 4295,
      "Ġoutside": 4296,
      "ĠBecky": 4297,
      "Ġeng": 4298,
      "Ġseems": 4299,
      "ittel": 4300,
      "Ġprev": 4301,
      "Ġpassion": 4302,
      "Ġclerk": 4303,
      "Ġcarried": 4304,
      "Ġaccom": 4305,
      "Ġgirls": 4306,
      "ĠEmpfindung": 4307,
      "Ġburst": 4308,
      "ĠMÃ¤nner": 4309,
      "Von": 4310,
      "gÃ¼": 4311,
      "hÃ¼": 4312,
      "hÃ¤ng": 4313,
      "Ġtie": 4314,
      "Ġtat": 4315,
      "Ġthird": 4316,
      "Ġbitter": 4317,
      "oned": 4318,
      "isse": 4319,
      "Ġguten": 4320,
      "Ġlen": 4321,
      "Ġanders": 4322,
      "ĠSal": 4323,
      "Ġpity": 4324,
      "Ġbeau": 4325,
      "Ġhabt": 4326,
      "Ġerblickte": 4327,
      "Ġsoft": 4328,
      "ammen": 4329,
      "ĠstÃ¼r": 4330,
      "ĠFol": 4331,
      "ĠDach": 4332,
      "ĠfrÃ¼h": 4333,
      "olf": 4334,
      "ĠNÃ¤he": 4335,
      "Ġliegt": 4336,
      "Ġcomfort": 4337,
      "Ġpressed": 4338,
      "Ġfirm": 4339,
      "ives": 4340,
      "ktor": 4341,
      "Ã¼ssel": 4342,
      "ĠweiÃŁt": 4343,
      "Ġwahrscheinlich": 4344,
      "Ġregard": 4345,
      "Ġempfand": 4346,
      "ĠWeib": 4347,
      "Ġrelig": 4348,
      "heimnis": 4349,
      "Ġrecogn": 4350,
      "Ġpretty": 4351,
      "ĠNikol": 4352,
      "dom": 4353,
      "ugte": 4354,
      "zz": 4355,
      "inary": 4356,
      "Ġsus": 4357,
      "recken": 4358,
      "elten": 4359,
      "ĠSeine": 4360,
      "ĠSinn": 4361,
      "Ġeins": 4362,
      "Ġpal": 4363,
      "ĠerfÃ¼": 4364,
      "heir": 4365,
      "Ġhell": 4366,
      "ĠBen": 4367,
      "Ġrefle": 4368,
      "Ġreceived": 4369,
      "Ġgebracht": 4370,
      "ĠWind": 4371,
      "Ġschm": 4372,
      "ĠRÃ¼cken": 4373,
      "ĠDo": 4374,
      "ĠSchrei": 4375,
      "ĠZweifel": 4376,
      "Ġlead": 4377,
      "Ġweak": 4378,
      "ags": 4379,
      "Ġchief": 4380,
      "ardinal": 4381,
      "Ġconst": 4382,
      "ĠVerw": 4383,
      "Ġroad": 4384,
      "ĠErde": 4385,
      "assung": 4386,
      "Ġtry": 4387,
      "Ġseien": 4388,
      "Ġfragen": 4389,
      "Ã¤ngen": 4390,
      "Ġbread": 4391,
      "Ġjenes": 4392,
      "Ġfrem": 4393,
      "ĠGerichts": 4394,
      "Ġwrong": 4395,
      "ĠRouen": 4396,
      "ĠDarja": 4397,
      "gestellt": 4398,
      "Ġcovered": 4399,
      "ĠEnglish": 4400,
      "Ġsechs": 4401,
      "ĠWahrheit": 4402,
      "Auch": 4403,
      "Every": 4404,
      "ON": 4405,
      "Vronsky": 4406,
      "cow": 4407,
      "do": 4408,
      "ipp": 4409,
      "inander": 4410,
      "Ġharm": 4411,
      "Ġbill": 4412,
      "Ġblo": 4413,
      "Ġbird": 4414,
      "onville": 4415,
      "Ġinne": 4416,
      "Ġintent": 4417,
      "Ġlim": 4418,
      "Ġbevor": 4419,
      "ĠGro": 4420,
      "ĠGold": 4421,
      "aching": 4422,
      "Ġanx": 4423,
      "roffen": 4424,
      "uty": 4425,
      "amber": 4426,
      "Ġstrugg": 4427,
      "ĠWun": 4428,
      "Ġrau": 4429,
      "Ġimstande": 4430,
      "umber": 4431,
      "Ġdesire": 4432,
      "ossen": 4433,
      "ĠStock": 4434,
      "ustom": 4435,
      "ries": 4436,
      "Ġunterbrach": 4437,
      "fÃ¼hren": 4438,
      "Ġbroken": 4439,
      "Ġaccord": 4440,
      "Ġtrees": 4441,
      "ĠFÃ¼rsten": 4442,
      "vollen": 4443,
      "Ġstark": 4444,
      "Ġstarted": 4445,
      "Ġnearly": 4446,
      "Ġfriends": 4447,
      "Ġphilosop": 4448,
      "Ġhurried": 4449,
      "Ġdespair": 4450,
      "Alice": 4451,
      "Ġpaper": 4452,
      "Ġprinci": 4453,
      "Ġforgotten": 4454,
      "ĠLouis": 4455,
      "ĠHilfe": 4456,
      "Gringoire": 4457,
      "Ġcomplete": 4458,
      "ĠIngram": 4459,
      "Ġcharacter": 4460,
      "Never": 4461,
      "bro": 4462,
      "henden": 4463,
      "rid": 4464,
      "setz": 4465,
      "usch": 4466,
      "Ġtalked": 4467,
      "eshalb": 4468,
      "isted": 4469,
      "Ġfield": 4470,
      "llten": 4471,
      "Ġletzte": 4472,
      "Ġcell": 4473,
      "stren": 4474,
      "ĠSam": 4475,
      "Ġpull": 4476,
      "Ġbez": 4477,
      "ĠGottes": 4478,
      "ĠMale": 4479,
      "ĠKle": 4480,
      "ĠBut": 4481,
      "utung": 4482,
      "Ġstieg": 4483,
      "ĠschÃ¼ttel": 4484,
      "kehr": 4485,
      "ĠDor": 4486,
      "ĠSche": 4487,
      "ftigen": 4488,
      "Ġneither": 4489,
      "Ġlean": 4490,
      "Ġshowed": 4491,
      "ots": 4492,
      "ĠOn": 4493,
      "rench": 4494,
      "Where": 4495,
      "Ġwolle": 4496,
      "Ġniedr": 4497,
      "Ġaddr": 4498,
      "erence": 4499,
      "Ġspect": 4500,
      "Ġsett": 4501,
      "Ġschlecht": 4502,
      "jenka": 4503,
      "ĠMoscow": 4504,
      "Ġhabit": 4505,
      "ĠZeichen": 4506,
      "Ġpicture": 4507,
      "Ġmerkte": 4508,
      "ĠÃ¤rger": 4509,
      "Ġpiece": 4510,
      "Ġgloom": 4511,
      "Ġoblig": 4512,
      "Dolly": 4513,
      "Ihre": 4514,
      "bogen": 4515,
      "iere": 4516,
      "path": 4517,
      "Ġsigh": 4518,
      "Ġmis": 4519,
      "ĠmiÃŁ": 4520,
      "Ġbat": 4521,
      "Ġbare": 4522,
      "arbeit": 4523,
      "Ġfixed": 4524,
      "Ã¼re": 4525,
      "uren": 4526,
      "Ġzufrieden": 4527,
      "ĠKÃ¼": 4528,
      "scht": 4529,
      "ĠFrÃ¤ulein": 4530,
      "ĠFrench": 4531,
      "Ġallowed": 4532,
      "derte": 4533,
      "aged": 4534,
      "rift": 4535,
      "ĠCl": 4536,
      "Ġwirst": 4537,
      "Ġarri": 4538,
      "zeÃŁ": 4539,
      "Ã¶ren": 4540,
      "Ġliebte": 4541,
      "ochte": 4542,
      "Ġself": 4543,
      "ightened": 4544,
      "ians": 4545,
      "Ġmarried": 4546,
      "Ġnature": 4547,
      "Ġbereit": 4548,
      "reckte": 4549,
      "Ġpainter": 4550,
      "ĠSchritte": 4551,
      "Ġservant": 4552,
      "ĠMaler": 4553,
      "ffee": 4554,
      "Ġsobald": 4555,
      "Ġpublic": 4556,
      "Ġcandle": 4557,
      "Ġgeschehen": 4558,
      ",--": 4559,
      "ai": 4560,
      "bs": 4561,
      "kle": 4562,
      "ernen": 4563,
      "Ġthrew": 4564,
      "Ġmachten": 4565,
      "arde": 4566,
      "Ã¼g": 4567,
      "terben": 4568,
      "genommen": 4569,
      "ĠGou": 4570,
      "ĠGut": 4571,
      "achsen": 4572,
      "gekommen": 4573,
      "ĠBest": 4574,
      "sequ": 4575,
      "ĠLeni": 4576,
      "olen": 4577,
      "ĠAnsicht": 4578,
      "Ġdarum": 4579,
      "Ġbrach": 4580,
      "Ġblood": 4581,
      "pfte": 4582,
      "Ġkannte": 4583,
      "Ġdressed": 4584,
      "glichkeit": 4585,
      "ĠSpiel": 4586,
      "ĠWege": 4587,
      "Ġwait": 4588,
      "Ġgeradezu": 4589,
      "Ġsense": 4590,
      "Ġtwenty": 4591,
      "ĠAngst": 4592,
      "ĠStuhl": 4593,
      "Ġholen": 4594,
      "Ġcircum": 4595,
      "Ġzweiten": 4596,
      "ĠKapitel": 4597,
      "Ġcompany": 4598,
      "ĠApotheker": 4599,
      "PlÃ¶tzlich": 4600,
      "Den": 4601,
      "Just": 4602,
      "aff": 4603,
      "lungen": 4604,
      "nat": 4605,
      "oly": 4606,
      "pal": 4607,
      "tis": 4608,
      "inc": 4609,
      "Ġsal": 4610,
      "Ġsicht": 4611,
      "Ġsend": 4612,
      "Ġtired": 4613,
      "Ġwider": 4614,
      "este": 4615,
      "itions": 4616,
      "ision": 4617,
      "atze": 4618,
      "Ã¼ng": 4619,
      "Ġval": 4620,
      "hrung": 4621,
      "ĠKut": 4622,
      "ĠHin": 4623,
      "ceive": 4624,
      "ĠTHE": 4625,
      "ĠstieÃŁ": 4626,
      "Ġreiz": 4627,
      "ĠRÃ¼ck": 4628,
      "ĠZw": 4629,
      "Ġspite": 4630,
      "Ġshook": 4631,
      "anze": 4632,
      "rib": 4633,
      "ĠVerl": 4634,
      "ĠOl": 4635,
      "Ã¤tigkeit": 4636,
      "ĠfaÃŁte": 4637,
      "Ġtrans": 4638,
      "reif": 4639,
      "Ġcompl": 4640,
      "Ã¤chter": 4641,
      "Ġdisappe": 4642,
      "Ġeverybody": 4643,
      "gesehen": 4644,
      "Ġinteress": 4645,
      "Ġplaced": 4646,
      "volle": 4647,
      "Ġerschienen": 4648,
      "ĠHauptmann": 4649,
      "Ġschwarzen": 4650,
      "ĠSonne": 4651,
      "ĠAdvokaten": 4652,
      "Ġlabour": 4653,
      "Ġbeinahe": 4654,
      "ĠSchÃ¶nheit": 4655,
      "gÃ¼lt": 4656,
      "ec": 4657,
      "ev": 4658,
      "fr": 4659,
      "iar": 4660,
      "ize": 4661,
      "mar": 4662,
      "yond": 4663,
      "inne": 4664,
      "Ġavo": 4665,
      "Ġhind": 4666,
      "Ġbound": 4667,
      "iste": 4668,
      "ĠSid": 4669,
      "aup": 4670,
      "alter": 4671,
      "ident": 4672,
      "acher": 4673,
      "ĠMacht": 4674,
      "Ġsolle": 4675,
      "Ġdagegen": 4676,
      "schuld": 4677,
      "ĠTische": 4678,
      "ĠFer": 4679,
      "ĠEhe": 4680,
      "Ġseat": 4681,
      "Ġseeing": 4682,
      "ĠDunkel": 4683,
      "ĠSchule": 4684,
      "ests": 4685,
      "Ġneigh": 4686,
      "ĠspÃ¤t": 4687,
      "ouses": 4688,
      "losen": 4689,
      "atever": 4690,
      "ĠGesetz": 4691,
      "ĠRegen": 4692,
      "Ġsollten": 4693,
      "immt": 4694,
      "Ġwelchem": 4695,
      "Ġbeheld": 4696,
      "Ġtea": 4697,
      "tempt": 4698,
      "Ã¤ÃŁt": 4699,
      "Ã¶ffnet": 4700,
      "Ġsky": 4701,
      "ĠPhÃ¶bus": 4702,
      "ĠMoskau": 4703,
      "Ġconcern": 4704,
      "zeugt": 4705,
      "ĠbeschÃ¤ftigt": 4706,
      "ĠSchweigen": 4707,
      "Ġentirely": 4708,
      "ĠnÃ¤mlich": 4709,
      "By": 4710,
      "bour": 4711,
      "cing": 4712,
      "io": 4713,
      "kÃ¼rlich": 4714,
      "Ġwander": 4715,
      "test": 4716,
      "Ġbal": 4717,
      "asen": 4718,
      "ases": 4719,
      "aschen": 4720,
      "ĠkrÃ¤": 4721,
      "Ġzuerst": 4722,
      "idung": 4723,
      "ĠGarten": 4724,
      "Ġheran": 4725,
      "ĠKna": 4726,
      "ĠKunst": 4727,
      "ĠBem": 4728,
      "ĠBei": 4729,
      "ĠTour": 4730,
      "Ġstop": 4731,
      "Ġscheint": 4732,
      "Ġalt": 4733,
      "Ġunangen": 4734,
      "ĠPhoebus": 4735,
      "ĠRuss": 4736,
      "nehm": 4737,
      "usion": 4738,
      "Ġdog": 4739,
      "ques": 4740,
      "Ġshut": 4741,
      "Ġentr": 4742,
      "Ã¤ndern": 4743,
      "weifl": 4744,
      "Ġknown": 4745,
      "Ġpeace": 4746,
      "ĠflÃ¼ster": 4747,
      "Ġbisher": 4748,
      "Ġpassing": 4749,
      "ĠLieb": 4750,
      "Ġhohen": 4751,
      "ĠProzeÃŁ": 4752,
      "Ġacross": 4753,
      "Ġguter": 4754,
      "Ġclearly": 4755,
      "Ġwalls": 4756,
      "Ġkleines": 4757,
      "Ġapproached": 4758,
      "Ġrichtete": 4759,
      "Ġmatters": 4760,
      "Alexei": 4761,
      "ĠHoffnung": 4762,
      "ĠnÃ¶tig": 4763,
      "Ġlength": 4764,
      "Will": 4765,
      "das": 4766,
      "how": 4767,
      "haf": 4768,
      "ral": 4769,
      "ritt": 4770,
      "tl": 4771,
      "uen": 4772,
      "uge": 4773,
      "Ġdicht": 4774,
      "Ġhid": 4775,
      "Ġfut": 4776,
      "Ġlust": 4777,
      "Ġcru": 4778,
      "ÃŁten": 4779,
      "Ġkenne": 4780,
      "Ġnoise": 4781,
      "Ġsage": 4782,
      "Ġehr": 4783,
      "aming": 4784,
      "Ġgeist": 4785,
      "ĠWenn": 4786,
      "ĠSchmerz": 4787,
      "uchten": 4788,
      "Ġleb": 4789,
      "Ġlegs": 4790,
      "Ġleaving": 4791,
      "iteinander": 4792,
      "ĠglÃ¤nz": 4793,
      "ĠOhren": 4794,
      "udolf": 4795,
      "aces": 4796,
      "maÃŁen": 4797,
      "Ġbox": 4798,
      "altung": 4799,
      "Ġmoments": 4800,
      "Ġdread": 4801,
      "Ġbroke": 4802,
      "Ġcarefully": 4803,
      "ĠGlas": 4804,
      "Ġsimple": 4805,
      "Ġexplain": 4806,
      "Ġerwartet": 4807,
      "wendig": 4808,
      "ĠkÃ¼ÃŁte": 4809,
      "Ġuntil": 4810,
      "ĠRichtung": 4811,
      "Ġmanner": 4812,
      "heureux": 4813,
      "Good": 4814,
      "Ver": 4815,
      "hend": 4816,
      "hnen": 4817,
      "lÃ¤": 4818,
      "mor": 4819,
      "Ã¢": 4820,
      "Ã§": 4821,
      "enken": 4822,
      "Ġmiteinander": 4823,
      "ĠbiÃŁ": 4824,
      "arrow": 4825,
      "Ġgere": 4826,
      "order": 4827,
      "Ġloud": 4828,
      "Ã¼gen": 4829,
      "ĠprÃ¤cht": 4830,
      "aled": 4831,
      "Ġsoeben": 4832,
      "ĠKÃ¶rper": 4833,
      "ĠBed": 4834,
      "ĠHolz": 4835,
      "Ġwartete": 4836,
      "ades": 4837,
      "eihen": 4838,
      "Ġaufs": 4839,
      "ĠRichter": 4840,
      "denken": 4841,
      "ically": 4842,
      "ĠStud": 4843,
      "ĠJehan": 4844,
      "Ġchanged": 4845,
      "uÃŁer": 4846,
      "opin": 4847,
      "ielten": 4848,
      "lieÃŁen": 4849,
      "ĠOhr": 4850,
      "Ġfaces": 4851,
      "Ġselten": 4852,
      "Ġgrou": 4853,
      "Ġdiss": 4854,
      "ĠgroÃŁer": 4855,
      "Ġshoulders": 4856,
      "Ġkonnten": 4857,
      "Ġjede": 4858,
      "alda": 4859,
      "ĠMannes": 4860,
      "Ġsolcher": 4861,
      "Ġconscious": 4862,
      "lauben": 4863,
      "Ã¼tzen": 4864,
      "Ġkeiner": 4865,
      "Ġfinished": 4866,
      "hoben": 4867,
      "Ġgiving": 4868,
      "while": 4869,
      "ĠOrd": 4870,
      "treten": 4871,
      "ĠYonville": 4872,
      "Ġcontrary": 4873,
      "From": 4874,
      "ĠVerzweifl": 4875,
      "Ġheavy": 4876,
      "Ġprobably": 4877,
      "ĠVarenka": 4878,
      "ĠVerzweiflung": 4879,
      "Lys": 4880,
      "Sein": 4881,
      "aise": 4882,
      "brochen": 4883,
      "nÃ¤d": 4884,
      "Ġsank": 4885,
      "Ġteil": 4886,
      "Ġdunkel": 4887,
      "ielleicht": 4888,
      "Ġmass": 4889,
      "Ġmiss": 4890,
      "Ġmotion": 4891,
      "arily": 4892,
      "stu": 4893,
      "ston": 4894,
      "Ġpen": 4895,
      "urer": 4896,
      "ckten": 4897,
      "aul": 4898,
      "Ġzugleich": 4899,
      "Ġant": 4900,
      "Ġsake": 4901,
      "ĠHals": 4902,
      "ĠLachen": 4903,
      "Ġwarten": 4904,
      "Ġverk": 4905,
      "Ġreich": 4906,
      "Ġgefallen": 4907,
      "Ġrain": 4908,
      "Ġschol": 4909,
      "Ġunha": 4910,
      "pper": 4911,
      "meralda": 4912,
      "Ġvorh": 4913,
      "ĠJungen": 4914,
      "Ġchamber": 4915,
      "rite": 4916,
      "opf": 4917,
      "ists": 4918,
      "lose": 4919,
      "Ġbegin": 4920,
      "stellung": 4921,
      "Ġliegen": 4922,
      "Ġgeste": 4923,
      "Ġbesides": 4924,
      "Ã¤rte": 4925,
      "udwig": 4926,
      "Ġgrass": 4927,
      "Ġlaid": 4928,
      "ĠFrem": 4929,
      "Ġgleichfalls": 4930,
      "aves": 4931,
      "Ġzeigen": 4932,
      "Ã¤lte": 4933,
      "Only": 4934,
      "ĠGegenstand": 4935,
      "Ġphys": 4936,
      "Ġeffect": 4937,
      "zwischen": 4938,
      "Ġwalking": 4939,
      "oiselle": 4940,
      "Ġdeutlich": 4941,
      "Ġmention": 4942,
      "Besides": 4943,
      "Ġbeauty": 4944,
      "ĠWunsch": 4945,
      "Ġfuture": 4946,
      "Ġunhapp": 4947,
      "Vor": 4948,
      "ahlen": 4949,
      "bung": 4950,
      "die": 4951,
      "ding": 4952,
      "mittel": 4953,
      "so": 4954,
      "same": 4955,
      "ĠhÃ¤uf": 4956,
      "Ġfun": 4957,
      "Ã¼st": 4958,
      "Ġanderer": 4959,
      "Ġtot": 4960,
      "Ġcaused": 4961,
      "Ġangel": 4962,
      "ĠIr": 4963,
      "Ġehe": 4964,
      "ĠLÃ¶": 4965,
      "Ġdasselbe": 4966,
      "icked": 4967,
      "Ġleg": 4968,
      "Ġweek": 4969,
      "agd": 4970,
      "Ġshar": 4971,
      "ĠÃ¼berzeugt": 4972,
      "Ġchem": 4973,
      "ĠLeuten": 4974,
      "Ġgewissen": 4975,
      "Ġarmen": 4976,
      "Ġworse": 4977,
      "ounded": 4978,
      "ishing": 4979,
      "ĠGesichte": 4980,
      "Ġcomes": 4981,
      "Ġpecul": 4982,
      "ĠwÃ¼rd": 4983,
      "Ġresol": 4984,
      "Ġresumed": 4985,
      "ĠManne": 4986,
      "Ġknees": 4987,
      "Ġfeelings": 4988,
      "ĠAbsicht": 4989,
      "Ġreading": 4990,
      "Ġsecret": 4991,
      "Ġverstehe": 4992,
      "Ġdiscover": 4993,
      "Ġlaughter": 4994,
      "Ġrunning": 4995,
      "ĠerzÃ¤hlte": 4996,
      "Ġgegangen": 4997,
      "Ġziemlich": 4998,
      "Ġremark": 4999,
      "ĠWarjenka": 5000,
      "Ġpeculiar": 5001,
      "Ne": 5002,
      "bra": 5003,
      "clock": 5004,
      "rich": 5005,
      "vely": 5006,
      "wi": 5007,
      "wel": 5008,
      "wesen": 5009,
      "Ġtausend": 5010,
      "Ġwinter": 5011,
      "Ġhouses": 5012,
      "Ġfein": 5013,
      "Ġfanc": 5014,
      "Ġgather": 5015,
      "stadt": 5016,
      "ĠSold": 5017,
      "Ġbeyond": 5018,
      "emoiselle": 5019,
      "urst": 5020,
      "Ġderselben": 5021,
      "auern": 5022,
      "ĠGlo": 5023,
      "ĠKrÃ¤": 5024,
      "ĠBur": 5025,
      "ĠHoch": 5026,
      "ĠHinter": 5027,
      "ĠgeÃ¶ffnet": 5028,
      "Ġdemselben": 5029,
      "ĠSchÃ¼": 5030,
      "indet": 5031,
      "olphe": 5032,
      "ĠZie": 5033,
      "Ġabzu": 5034,
      "rieb": 5035,
      "Ġexact": 5036,
      "ĠArmen": 5037,
      "Ġqual": 5038,
      "achtung": 5039,
      "Ġgestern": 5040,
      "eiter": 5041,
      "Ġoffice": 5042,
      "Ġpost": 5043,
      "Ġjedem": 5044,
      "Ġheads": 5045,
      "ection": 5046,
      "ĠInter": 5047,
      "Ġdrag": 5048,
      "Ġeinzigen": 5049,
      "ĠEsmeralda": 5050,
      "Ġquestions": 5051,
      "ĠHerzog": 5052,
      "finden": 5053,
      "Ġaffairs": 5054,
      "ĠUmstÃ¤nd": 5055,
      "forder": 5056,
      "ĠKranken": 5057,
      "Ġwatched": 5058,
      "ĠwÃ¼nschte": 5059,
      "zuste": 5060,
      "ĠmÃ¼de": 5061,
      "Ġergriff": 5062,
      "Ġsurprised": 5063,
      "Ġwonder": 5064,
      "Ġoccupied": 5065,
      "Ġpflegte": 5066,
      "Ġentfernt": 5067,
      "Ġcircumst": 5068,
      "Ġhindurch": 5069,
      "Have": 5070,
      "Ob": 5071,
      "Of": 5072,
      "aber": 5073,
      "gere": 5074,
      "han": 5075,
      "ms": 5076,
      "tte": 5077,
      "vier": 5078,
      "zog": 5079,
      "chtete": 5080,
      "ndlich": 5081,
      "ises": 5082,
      "Ġfond": 5083,
      "Ġfif": 5084,
      "Ã¼nde": 5085,
      "Ġcity": 5086,
      "Ġeinzu": 5087,
      "Ġerk": 5088,
      "Ġerr": 5089,
      "Ġerfahren": 5090,
      "Ġerkennen": 5091,
      "Ġheaven": 5092,
      "ales": 5093,
      "ĠGleich": 5094,
      "ĠGelegenheit": 5095,
      "ĠMah": 5096,
      "ĠMaster": 5097,
      "Ġequ": 5098,
      "gebracht": 5099,
      "ĠBede": 5100,
      "ament": 5101,
      "Ġverheir": 5102,
      "ĠrÃ¼": 5103,
      "ĠEcke": 5104,
      "Ġunb": 5105,
      "Ġseid": 5106,
      "ĠDiana": 5107,
      "ĠSchn": 5108,
      "Ġdesc": 5109,
      "hler": 5110,
      "aby": 5111,
      "otter": 5112,
      "hnt": 5113,
      "stead": 5114,
      "Ġwohin": 5115,
      "odolphe": 5116,
      "These": 5117,
      "Ġmove": 5118,
      "weil": 5119,
      "gesetzt": 5120,
      "ighted": 5121,
      "Ġrecall": 5122,
      "However": 5123,
      "leidet": 5124,
      "Ġvermochte": 5125,
      "ashion": 5126,
      "Ġsitu": 5127,
      "Ġsimply": 5128,
      "Ġpurp": 5129,
      "ĠUrs": 5130,
      "Ġernst": 5131,
      "Ġpeasants": 5132,
      "Ġsquare": 5133,
      "ĠMÃ¶glichkeit": 5134,
      "Ġunpleas": 5135,
      "Ġarchitecture": 5136,
      "ĠunwillkÃ¼rlich": 5137,
      "ĠMichail": 5138,
      "ĠschÃ¼ttelte": 5139,
      "ĠGouvern": 5140,
      "ĠOrdnung": 5141,
      "FÃ¼r": 5142,
      "Meine": 5143,
      "hung": 5144,
      "ober": 5145,
      "erie": 5146,
      "Ġsle": 5147,
      "ĠwÃ¼": 5148,
      "Ġnarrow": 5149,
      "angte": 5150,
      "Ġfet": 5151,
      "lled": 5152,
      "Ġinte": 5153,
      "Ġlesen": 5154,
      "Ġpav": 5155,
      "ĠGang": 5156,
      "Ã¶pfe": 5157,
      "Ġears": 5158,
      "ĠLudwig": 5159,
      "ĠTagen": 5160,
      "ĠFrei": 5161,
      "ĠFragen": 5162,
      "ĠWald": 5163,
      "ĠschloÃŁ": 5164,
      "Ġforce": 5165,
      "Ġforward": 5166,
      "keeper": 5167,
      "ĠRed": 5168,
      "ĠRue": 5169,
      "ĠfrÃ¶h": 5170,
      "Ġmanchmal": 5171,
      "ĠÃ¼berr": 5172,
      "Ġvorsichtig": 5173,
      "Ġliber": 5174,
      "Ġfaith": 5175,
      "rows": 5176,
      "Ã¤cher": 5177,
      "Ġseized": 5178,
      "Ġremain": 5179,
      "istence": 5180,
      "Ġscar": 5181,
      "Ġgeschlossen": 5182,
      "Ġcoat": 5183,
      "drÃ¼cken": 5184,
      "stÃ¤ndnis": 5185,
      "Ġmarriage": 5186,
      "teilen": 5187,
      "merksamkeit": 5188,
      "Ġindiff": 5189,
      "ĠEngland": 5190,
      "boden": 5191,
      "hÃ¶ren": 5192,
      "Ġdirection": 5193,
      "Ã¼mmer": 5194,
      "iliar": 5195,
      "Ġdevil": 5196,
      "ĠFleur": 5197,
      "Ġnatural": 5198,
      "Ġsplend": 5199,
      "ĠOnkel": 5200,
      "Having": 5201,
      "Some": 5202,
      "bon": 5203,
      "fre": 5204,
      "hem": 5205,
      "ipped": 5206,
      "jasch": 5207,
      "mittag": 5208,
      "oc": 5209,
      "oes": 5210,
      "uden": 5211,
      "Ġhos": 5212,
      "Ġthick": 5213,
      "Ġthank": 5214,
      "Ġmere": 5215,
      "Ġbitten": 5216,
      "ischt": 5217,
      "Ġfarm": 5218,
      "Ġtower": 5219,
      "Ġce": 5220,
      "Ġcast": 5221,
      "Ġeinsam": 5222,
      "ĠMond": 5223,
      "ĠHa": 5224,
      "ĠLust": 5225,
      "ĠWronsk": 5226,
      "Ġring": 5227,
      "Ġash": 5228,
      "Ġasleep": 5229,
      "Ġnotice": 5230,
      "ĠRede": 5231,
      "ĠDingen": 5232,
      "umph": 5233,
      "ics": 5234,
      "well": 5235,
      "Ġmyster": 5236,
      "Ġentw": 5237,
      "Ġbright": 5238,
      "Ġmochte": 5239,
      "Ġbesten": 5240,
      "Ġknowing": 5241,
      "ĠfÃ¼hren": 5242,
      "Ġprodu": 5243,
      "Ġplain": 5244,
      "Ġobwohl": 5245,
      "ĠVorh": 5246,
      "Ġafterwards": 5247,
      "cient": 5248,
      "Ġspring": 5249,
      "ĠGesichts": 5250,
      "Ġtragen": 5251,
      "Nothing": 5252,
      "Ġpleasant": 5253,
      "ĠGeschÃ¤ft": 5254,
      "Ġhandsome": 5255,
      "Ġdrawn": 5256,
      "Ġpointed": 5257,
      "Ġsurr": 5258,
      "Ġsuffer": 5259,
      "zeitig": 5260,
      "ĠgrÃ¶ÃŁer": 5261,
      "Ġfurther": 5262,
      "ĠschÃ¶ne": 5263,
      "ĠFÃ¼ÃŁen": 5264,
      "Ġacquaint": 5265,
      "Ġpeasant": 5266,
      "ĠdÃ¼rfen": 5267,
      "ĠTraum": 5268,
      "Ġfigure": 5269,
      "ĠVerhÃ¤ltnis": 5270,
      "Ġmovement": 5271,
      "Ġmemory": 5272,
      "Ġvillage": 5273,
      "Ġobliged": 5274,
      "Ġunpleasant": 5275,
      "Did": 5276,
      "hsky": 5277,
      "king": 5278,
      "komm": 5279,
      "low": 5280,
      "rig": 5281,
      "uted": 5282,
      "Ġtall": 5283,
      "Ġthin": 5284,
      "isters": 5285,
      "reut": 5286,
      "Ġnone": 5287,
      "anqu": 5288,
      "Ġinner": 5289,
      "Ġinform": 5290,
      "Ġcoll": 5291,
      "Ġcreat": 5292,
      "Ġcaught": 5293,
      "ĠSpe": 5294,
      "Ã¤ren": 5295,
      "Ġpack": 5296,
      "Ġpriv": 5297,
      "ommer": 5298,
      "Ġkla": 5299,
      "Ġzurecht": 5300,
      "Ġheim": 5301,
      "alous": 5302,
      "ĠMo": 5303,
      "Ġherunter": 5304,
      "ĠHÃ¤us": 5305,
      "Ġverstand": 5306,
      "Ġstair": 5307,
      "ĠWand": 5308,
      "Ġrings": 5309,
      "Ġrising": 5310,
      "ĠRock": 5311,
      "ĠDa": 5312,
      "olog": 5313,
      "uments": 5314,
      "ĠÃ¼berall": 5315,
      "Ġconv": 5316,
      "stes": 5317,
      "Dies": 5318,
      "Dieses": 5319,
      "Ġknock": 5320,
      "Ġagree": 5321,
      "Ġdidn": 5322,
      "ĠBeis": 5323,
      "ĠBeam": 5324,
      "pfer": 5325,
      "Ġgrand": 5326,
      "ĠGrunde": 5327,
      "Ġshoulder": 5328,
      "Ġprep": 5329,
      "Ġcloud": 5330,
      "ĠEinzel": 5331,
      "ĠAufmerksamkeit": 5332,
      "Ġdistur": 5333,
      "Ġzehn": 5334,
      "Alles": 5335,
      "Ġeigene": 5336,
      "Ġguard": 5337,
      "Ġdelight": 5338,
      "Ġlistening": 5339,
      "Ġexplan": 5340,
      "Ġangry": 5341,
      "Ġgentleman": 5342,
      "Ġuncle": 5343,
      "ĠGeistliche": 5344,
      "Ġtrotzdem": 5345,
      "ĠlÃ¤ngst": 5346,
      "Ġempor": 5347,
      "ĠTode": 5348,
      "Char": 5349,
      "Ġviol": 5350,
      "Ġbottom": 5351,
      "ĠZustand": 5352,
      "Ġwhispered": 5353,
      "Ġkomme": 5354,
      "Ġinterrupted": 5355,
      "Ġdisappeared": 5356,
      "Ġvorhanden": 5357,
      "wijasch": 5358,
      "Gew": 5359,
      "Wel": 5360,
      "bau": 5361,
      "come": 5362,
      "eks": 5363,
      "mn": 5364,
      "opp": 5365,
      "Ġain": 5366,
      "Ġsetzen": 5367,
      "Ġdick": 5368,
      "Ġfashion": 5369,
      "Ġgrau": 5370,
      "Ġgrown": 5371,
      "Ġbem": 5372,
      "Ġkalt": 5373,
      "rote": 5374,
      "Ġeight": 5375,
      "ĠKummer": 5376,
      "Ġones": 5377,
      "ĠLheureux": 5378,
      "ĠTit": 5379,
      "ĠTÃ¶": 5380,
      "ĠTÃ¤tigkeit": 5381,
      "ĠverlieÃŁ": 5382,
      "ĠWerk": 5383,
      "Ġschn": 5384,
      "Ġunable": 5385,
      "ĠRau": 5386,
      "olas": 5387,
      "Ġspent": 5388,
      "quem": 5389,
      "riffen": 5390,
      "Ġexpress": 5391,
      "Ġextra": 5392,
      "Ġexistence": 5393,
      "fehl": 5394,
      "ously": 5395,
      "stellen": 5396,
      "Ġentz": 5397,
      "utete": 5398,
      "Ġtraten": 5399,
      "Ġwollten": 5400,
      "Ġobject": 5401,
      "arsh": 5402,
      "Ġlagen": 5403,
      "ĠFreunde": 5404,
      "Ġperfe": 5405,
      "Ġbehaup": 5406,
      "Ġfrequ": 5407,
      "Ġbelow": 5408,
      "Ġgemein": 5409,
      "ĠLande": 5410,
      "Ġclean": 5411,
      "ĠHauses": 5412,
      "Ġreader": 5413,
      "finite": 5414,
      "Ġbelieved": 5415,
      "ubel": 5416,
      "ĠGewalt": 5417,
      "Ġsuppose": 5418,
      "Ġforgive": 5419,
      "ĠKamin": 5420,
      "Ġdiscuss": 5421,
      "reuz": 5422,
      "Ġmeeting": 5423,
      "ĠlÃ¤nger": 5424,
      "Ġmusic": 5425,
      "Ġapart": 5426,
      "ĠdrauÃŁen": 5427,
      "ĠTemple": 5428,
      "Ġsichtbar": 5429,
      "Ġunhappy": 5430,
      "Oblonsk": 5431,
      "Your": 5432,
      "fiel": 5433,
      "gust": 5434,
      "hielt": 5435,
      "mas": 5436,
      "nungen": 5437,
      "ron": 5438,
      "Ġtort": 5439,
      "Ġtong": 5440,
      "Ġhill": 5441,
      "iegel": 5442,
      "Ġmiser": 5443,
      "Ġga": 5444,
      "Ġinfolge": 5445,
      "Ġline": 5446,
      "igem": 5447,
      "stairs": 5448,
      "Ã¤nen": 5449,
      "Ġerl": 5450,
      "ĠerrÃ¶": 5451,
      "hrten": 5452,
      "Ġheir": 5453,
      "Ġaud": 5454,
      "ĠGute": 5455,
      "Ġwhatever": 5456,
      "ĠIm": 5457,
      "ĠMil": 5458,
      "ĠKan": 5459,
      "Ġdenke": 5460,
      "ĠLa": 5461,
      "ĠTante": 5462,
      "ĠVes": 5463,
      "beits": 5464,
      "ĠZus": 5465,
      "anzen": 5466,
      "ĠUe": 5467,
      "raut": 5468,
      "Ġconne": 5469,
      "itete": 5470,
      "Ã¶rte": 5471,
      "akter": 5472,
      "Ġglanced": 5473,
      "Ġmoving": 5474,
      "Ġblue": 5475,
      "Ġprov": 5476,
      "iform": 5477,
      "ĠUnters": 5478,
      "ples": 5479,
      "Ġempt": 5480,
      "ĠLjewins": 5481,
      "ternal": 5482,
      "Ã¤ngst": 5483,
      "Ġfinally": 5484,
      "Ġteeth": 5485,
      "Ġcoach": 5486,
      "attered": 5487,
      "ĠIhrer": 5488,
      "klÃ¤r": 5489,
      "ĠAufregung": 5490,
      "Ġdistance": 5491,
      "attle": 5492,
      "Ġstarr": 5493,
      "folg": 5494,
      "ĠKÃ¶nigs": 5495,
      "Ġfinger": 5496,
      "jenige": 5497,
      "Ġmeaning": 5498,
      "mÃ¶gen": 5499,
      "ĠSchultern": 5500,
      "Ġfroh": 5501,
      "ĠKnie": 5502,
      "Ġremarked": 5503,
      "Ã¼chtig": 5504,
      "ĠReihe": 5505,
      "ĠJahrhund": 5506,
      "Ġ14": 5507,
      "Ġfurchtbar": 5508,
      "ĠPflicht": 5509,
      "Ġinflu": 5510,
      "ĠUntersuch": 5511,
      "',": 5512,
      "Karenin": 5513,
      "Mad": 5514,
      "Vielleicht": 5515,
      "bing": 5516,
      "hÃ¶": 5517,
      "hay": 5518,
      "nern": 5519,
      "ping": 5520,
      "sichten": 5521,
      "uhren": 5522,
      "yaz": 5523,
      "zess": 5524,
      "zha": 5525,
      "Ġsum": 5526,
      "Ġdim": 5527,
      "Ġwore": 5528,
      "Ġband": 5529,
      "ison": 5530,
      "arren": 5531,
      "Ġgle": 5532,
      "lli": 5533,
      "Ġlit": 5534,
      "Ġlachte": 5535,
      "ckle": 5536,
      "alen": 5537,
      "ĠMik": 5538,
      "Ġsole": 5539,
      "ĠKauf": 5540,
      "lichem": 5541,
      "ĠHen": 5542,
      "erezha": 5543,
      "Ġstock": 5544,
      "ĠFort": 5545,
      "Ġreichte": 5546,
      "Ġjour": 5547,
      "Ġformed": 5548,
      "ĠDank": 5549,
      "ĠDmit": 5550,
      "ushing": 5551,
      "ays": 5552,
      "osite": 5553,
      "ĠAnfang": 5554,
      "ĠAnstren": 5555,
      "Ġchance": 5556,
      "Ġextre": 5557,
      "law": 5558,
      "Ġdull": 5559,
      "ĠGefÃ¼": 5560,
      "utet": 5561,
      "ĠBezieh": 5562,
      "Ã¤chst": 5563,
      "isches": 5564,
      "Ġgerichtet": 5565,
      "Ġpoet": 5566,
      "Ġpock": 5567,
      "idence": 5568,
      "ĠzurÃ¼ckge": 5569,
      "Ġjenen": 5570,
      "mitted": 5571,
      "Ġvielmehr": 5572,
      "Ġwaited": 5573,
      "lichkeiten": 5574,
      "Ġverschwand": 5575,
      "teilt": 5576,
      "ĠEntschl": 5577,
      "ungslos": 5578,
      "schlag": 5579,
      "Ġoccas": 5580,
      "Ġschwarz": 5581,
      "Ġeduc": 5582,
      "ĠSchulter": 5583,
      "ĠXI": 5584,
      "Ġgolden": 5585,
      "Ġcommon": 5586,
      "Ġcommun": 5587,
      "mÃ¤ÃŁig": 5588,
      "Ġkrank": 5589,
      "Ġtraurig": 5590,
      "viyaz": 5591,
      "ĠflÃ¼sterte": 5592,
      "ĠWronskis": 5593,
      "Charles": 5594,
      "RE": 5595,
      "case": 5596,
      "gele": 5597,
      "look": 5598,
      "zul": 5599,
      "Ġ[": 5600,
      "iny": 5601,
      "ĠsÃ¼": 5602,
      "ieÃŁen": 5603,
      "Ġmakes": 5604,
      "itchen": 5605,
      "Ġnon": 5606,
      "anten": 5607,
      "Ġfat": 5608,
      "Ġvar": 5609,
      "Ġcre": 5610,
      "ĠSan": 5611,
      "ĠSÃ¤": 5612,
      "Ġeiniger": 5613,
      "leg": 5614,
      "Ġkitchen": 5615,
      "Ġsowohl": 5616,
      "ĠBert": 5617,
      "ĠHÃ¼": 5618,
      "ĠTau": 5619,
      "Ġgebe": 5620,
      "ĠEisen": 5621,
      "Ġune": 5622,
      "Ġseuf": 5623,
      "oose": 5624,
      "Ġdemand": 5625,
      "allen": 5626,
      "hens": 5627,
      "ĠSchaus": 5628,
      "uls": 5629,
      "ulty": 5630,
      "Ġdeaf": 5631,
      "ĠAnge": 5632,
      "ittys": 5633,
      "Ġgewalt": 5634,
      "itet": 5635,
      "Ġganzes": 5636,
      "Ġwert": 5637,
      "ĠArbeits": 5638,
      "Ã¤tze": 5639,
      "Ã¤ndert": 5640,
      "pfl": 5641,
      "ĠbesaÃŁ": 5642,
      "ĠwÃ¤ren": 5643,
      "ified": 5644,
      "ĠAlexander": 5645,
      "ĠzurÃ¼ckzu": 5646,
      "Ġfortune": 5647,
      "Ġirrit": 5648,
      "laubt": 5649,
      "Ġinterv": 5650,
      "Ġvollkommen": 5651,
      "itzt": 5652,
      "ĠSchwier": 5653,
      "Ġserious": 5654,
      "ĠGerÃ¤usch": 5655,
      "ĠOblonski": 5656,
      "Ã¤lter": 5657,
      "Ġsens": 5658,
      "ĠÃ¼brigen": 5659,
      "aunen": 5660,
      "Ġgedacht": 5661,
      "jenigen": 5662,
      "Ġsorg": 5663,
      "Ġinvol": 5664,
      "Ġmonths": 5665,
      "ĠHerzens": 5666,
      "Ġbooks": 5667,
      "ĠSociety": 5668,
      "Ġpurs": 5669,
      "ĠwÃ¼nschen": 5670,
      "Ġconcl": 5671,
      "ĠerklÃ¤rte": 5672,
      "ĠBrot": 5673,
      "ĠBrockle": 5674,
      "haltung": 5675,
      "Ġbestimmt": 5676,
      "Ġkissed": 5677,
      "ĠhÃ¼bsch": 5678,
      "ĠWirklichkeit": 5679,
      "Ġsympath": 5680,
      "Ġflowers": 5681,
      "Ġclothes": 5682,
      "letzt": 5683,
      "ĠClopin": 5684,
      "morrow": 5685,
      "ĠbiÃŁchen": 5686,
      "ĠBedeutung": 5687,
      "haylov": 5688,
      "viyazhsky": 5689,
      ".]": 5690,
      "Ad": 5691,
      "Karl": 5692,
      "Per": 5693,
      "Re": 5694,
      "cceed": 5695,
      "kten": 5696,
      "pre": 5697,
      "pic": 5698,
      "wirtschaft": 5699,
      "erm": 5700,
      "inct": 5701,
      "Ġsick": 5702,
      "Ġsterben": 5703,
      "Ġtender": 5704,
      "Ġduty": 5705,
      "Ġhinge": 5706,
      "itation": 5707,
      "itÃ¤t": 5708,
      "Ġfern": 5709,
      "Ġgiebt": 5710,
      "aters": 5711,
      "Ġinf": 5712,
      "ĠlÃ¤ÃŁt": 5713,
      "ĠAls": 5714,
      "ĠsaÃŁen": 5715,
      "rock": 5716,
      "ĠMason": 5717,
      "Ġeif": 5718,
      "ĠHar": 5719,
      "schn": 5720,
      "schlagen": 5721,
      "ĠLin": 5722,
      "ĠLes": 5723,
      "ĠLow": 5724,
      "Ġstory": 5725,
      "Ġstretched": 5726,
      "Ġrasch": 5727,
      "Ġmitten": 5728,
      "Ġaufmerk": 5729,
      "rag": 5730,
      "rate": 5731,
      "Ġforth": 5732,
      "ĠRivers": 5733,
      "uchs": 5734,
      "ĠSta": 5735,
      "ĠStimmung": 5736,
      "ables": 5737,
      "lage": 5738,
      "ĠLeo": 5739,
      "Ġconsequ": 5740,
      "nahme": 5741,
      "Ġsucceed": 5742,
      "Ġfav": 5743,
      "Ġgesp": 5744,
      "inkel": 5745,
      "Ġappar": 5746,
      "Ġinterested": 5747,
      "Ġclass": 5748,
      "Ġfinster": 5749,
      "wegs": 5750,
      "ĠpersÃ¶n": 5751,
      "ĠSchlÃ¼ssel": 5752,
      "Ġattra": 5753,
      "Ġeigent": 5754,
      "Ġgrace": 5755,
      "Ġfamiliar": 5756,
      "Ġrelations": 5757,
      "Ġminute": 5758,
      "ĠSchritt": 5759,
      "Ġservice": 5760,
      "Ġcondu": 5761,
      "kunst": 5762,
      "ship": 5763,
      "ĠgroÃŁes": 5764,
      "Ġdifficulty": 5765,
      "Ġquietly": 5766,
      "Ġhundert": 5767,
      "Ġbuild": 5768,
      "lovsky": 5769,
      "Ġscharf": 5770,
      "ĠÃ¤hnlich": 5771,
      "Ġarrived": 5772,
      "ĠKutscher": 5773,
      "Ġavoid": 5774,
      "Ġchemist": 5775,
      "ĠMikhaylov": 5776,
      "Are": 5777,
      "Endlich": 5778,
      "Sh": 5779,
      "bat": 5780,
      "con": 5781,
      "hurst": 5782,
      "ipe": 5783,
      "mt": 5784,
      "mack": 5785,
      "nes": 5786,
      "ned": 5787,
      "pet": 5788,
      "rade": 5789,
      "ton": 5790,
      "Ġwrote": 5791,
      "Ġhost": 5792,
      "Ġmach": 5793,
      "Ġnannte": 5794,
      "Ġnumber": 5795,
      "ller": 5796,
      "orth": 5797,
      "Ġcart": 5798,
      "ĠSommer": 5799,
      "Ġpor": 5800,
      "oman": 5801,
      "Ġerle": 5802,
      "Ġhealth": 5803,
      "imp": 5804,
      "immen": 5805,
      "ĠGÃ¤": 5806,
      "Ġanger": 5807,
      "ĠMut": 5808,
      "ĠMont": 5809,
      "ĠMama": 5810,
      "ĠHo": 5811,
      "ĠHund": 5812,
      "ĠHeil": 5813,
      "Ġverfol": 5814,
      "ĠForm": 5815,
      "ĠFroll": 5816,
      "ĠWÃ¤": 5817,
      "ĠPlace": 5818,
      "Ġfrightened": 5819,
      "ierten": 5820,
      "abb": 5821,
      "erness": 5822,
      "ĠLeon": 5823,
      "ĠgewÃ¤": 5824,
      "Ġarg": 5825,
      "stehen": 5826,
      "Ġentde": 5827,
      "ĠErschein": 5828,
      "Ġmoon": 5829,
      "Ġblind": 5830,
      "Ġknows": 5831,
      "ĠReise": 5832,
      "ĠBlumen": 5833,
      "gelassen": 5834,
      "lease": 5835,
      "Ġschwieg": 5836,
      "Ġhorror": 5837,
      "Ġantworten": 5838,
      "Ġslightly": 5839,
      "Ġdraw": 5840,
      "Ġfollow": 5841,
      "Ġfollowing": 5842,
      "Ġdelic": 5843,
      "Ġdouble": 5844,
      "ĠauÃŁerord": 5845,
      "ĠKrank": 5846,
      "Ġsitzen": 5847,
      "Ġdeiner": 5848,
      "Ġjemals": 5849,
      "Ġcheer": 5850,
      "Ã¤hlich": 5851,
      "Ġasking": 5852,
      "Herr": 5853,
      "wÃ¤rt": 5854,
      "ĠXX": 5855,
      "ĠMitleid": 5856,
      "ĠPapier": 5857,
      "wÃ¼rdig": 5858,
      "Ġintim": 5859,
      "cript": 5860,
      "Ġeilig": 5861,
      "Ġmurmelte": 5862,
      "ĠItalien": 5863,
      "Ġdivor": 5864,
      "Ġnamentlich": 5865,
      "Ġsettled": 5866,
      "ĠEinzelheiten": 5867,
      "Oblonsky": 5868,
      "ĠBrocklehurst": 5869,
      "Ġaufmerksam": 5870,
      "ĠFrollo": 5871,
      "Doch": 5872,
      "Que": 5873,
      "cause": 5874,
      "daÃŁ": 5875,
      "fast": 5876,
      "ghing": 5877,
      "now": 5878,
      "oÃŁen": 5879,
      "oved": 5880,
      "uern": 5881,
      "wen": 5882,
      "ĠYou": 5883,
      "Ġessen": 5884,
      "iner": 5885,
      "Ġage": 5886,
      "Ġsummer": 5887,
      "Ġtor": 5888,
      "Ġtap": 5889,
      "Ġdom": 5890,
      "Ġdur": 5891,
      "Ġdry": 5892,
      "Ġwet": 5893,
      "Ġhide": 5894,
      "iete": 5895,
      "iele": 5896,
      "icholas": 5897,
      "itted": 5898,
      "Ġnice": 5899,
      "asons": 5900,
      "asov": 5901,
      "anch": 5902,
      "Ġfurn": 5903,
      "ĠgnÃ¤d": 5904,
      "lling": 5905,
      "llos": 5906,
      "Ġinstead": 5907,
      "Ġlatter": 5908,
      "Ġandre": 5909,
      "igungen": 5910,
      "ĠSh": 5911,
      "ĠSitz": 5912,
      "Ġeinigen": 5913,
      "Ã¤um": 5914,
      "Ġpet": 5915,
      "Ġpop": 5916,
      "Ġbekannt": 5917,
      "Ġerhe": 5918,
      "ĠAben": 5919,
      "rodu": 5920,
      "ĠMet": 5921,
      "seit": 5922,
      "Ġstri": 5923,
      "ĠFest": 5924,
      "ĠWunder": 5925,
      "vert": 5926,
      "kehrt": 5927,
      "ĠPil": 5928,
      "Ġmeisten": 5929,
      "ĠRodolphe": 5930,
      "ĠSchicks": 5931,
      "ĠÃ¼berle": 5932,
      "weis": 5933,
      "Ġcho": 5934,
      "ĠfÃ¼rchter": 5935,
      "Ġrot": 5936,
      "pressed": 5937,
      "acle": 5938,
      "ĠUnivers": 5939,
      "ĠBlut": 5940,
      "Ġgreen": 5941,
      "ĠmÃ¶gen": 5942,
      "Ġzweite": 5943,
      "Ġlaughing": 5944,
      "Ã¤ngt": 5945,
      "Ġscre": 5946,
      "stÃ¤ndlich": 5947,
      "Ġhoff": 5948,
      "Ġmarry": 5949,
      "Ġallerlei": 5950,
      "erinnen": 5951,
      "ounced": 5952,
      "Ġindessen": 5953,
      "ĠKirchen": 5954,
      "ĠberÃ¼": 5955,
      "ĠWeile": 5956,
      "noc": 5957,
      "spruch": 5958,
      "Ġjealous": 5959,
      "zehnten": 5960,
      "Ġsingle": 5961,
      "ĠFÃ¼ÃŁe": 5962,
      "Ġpresented": 5963,
      "hstÃ¼ck": 5964,
      "Ġtaste": 5965,
      "Ġvague": 5966,
      "ĠAnnas": 5967,
      "Ġleaning": 5968,
      "Ġinfluence": 5969,
      ".)": 5970,
      "Go": 5971,
      "Ind": 5972,
      "Yet": 5973,
      "Zwei": 5974,
      "fft": 5975,
      "hende": 5976,
      "uish": 5977,
      "yers": 5978,
      "zust": 5979,
      "Ġaston": 5980,
      "Ġtend": 5981,
      "Ġdum": 5982,
      "Ġdeinen": 5983,
      "Ġwit": 5984,
      "Ġbon": 5985,
      "Ġna": 5986,
      "aska": 5987,
      "Ġflie": 5988,
      "Ġober": 5989,
      "Ġvan": 5990,
      "Ġcrown": 5991,
      "ĠSelbst": 5992,
      "Ġerhoben": 5993,
      "auen": 5994,
      "ĠMauer": 5995,
      "ĠKÃ¤": 5996,
      "ĠKittys": 5997,
      "ĠBein": 5998,
      "ĠBal": 5999,
      "ĠHÃ¤l": 6000,
      "erecht": 6001,
      "ĠLu": 6002,
      "ĠTor": 6003,
      "Ġverurs": 6004,
      "Ġstat": 6005,
      "adi": 6006,
      "ĠEing": 6007,
      "raben": 6008,
      "Ġfortw": 6009,
      "Ġforced": 6010,
      "Ġsear": 6011,
      "illy": 6012,
      "Ġnotwendig": 6013,
      "ĠRat": 6014,
      "âĢĵ": 6015,
      "ĠSchrecken": 6016,
      "olue": 6017,
      "ĠZug": 6018,
      "Ġshame": 6019,
      "Ġvorbei": 6020,
      "wechsel": 6021,
      "ĠJung": 6022,
      "istan": 6023,
      "meister": 6024,
      "Ġwillen": 6025,
      "Ġbegun": 6026,
      "aked": 6027,
      "Ġgoat": 6028,
      "ĠtrÃ¼": 6029,
      "Ġtranqu": 6030,
      "Ġbrid": 6031,
      "ĠkÃ¶nnten": 6032,
      "ugier": 6033,
      "Ġbecom": 6034,
      "Ġdritten": 6035,
      "ĠZeiten": 6036,
      "ivier": 6037,
      "Ġresult": 6038,
      "Ġprepar": 6039,
      "cited": 6040,
      "ĠGedÃ¤cht": 6041,
      "ĠParte": 6042,
      "Ġkey": 6043,
      "armolue": 6044,
      "Ã¤ude": 6045,
      "Ġstranger": 6046,
      "ĠvergnÃ¼": 6047,
      "theil": 6048,
      "Ġschienen": 6049,
      "iette": 6050,
      "Ġregular": 6051,
      "Ġfolgen": 6052,
      "ĠGegenteil": 6053,
      "ĠGegenwart": 6054,
      "ĠhÃ¶her": 6055,
      "Mrs": 6056,
      "zwungen": 6057,
      "Ġaware": 6058,
      "Ġstudy": 6059,
      "Ġentschlossen": 6060,
      "ĠRoman": 6061,
      "Ġcharming": 6062,
      "Ġgrowing": 6063,
      "Ġuttered": 6064,
      "ĠAlles": 6065,
      "Ġtouched": 6066,
      "ĠFrÃ¼hstÃ¼ck": 6067,
      "Ġshadow": 6068,
      "Ġaccording": 6069,
      "ĠKleider": 6070,
      "ĠDorf": 6071,
      "ĠBemerk": 6072,
      "lÃ¤ss": 6073,
      "ĠMichailow": 6074,
      "Gregor": 6075,
      "awas": 6076,
      "cur": 6077,
      "ected": 6078,
      "iven": 6079,
      "jal": 6080,
      "mÃ¤hlich": 6081,
      "wise": 6082,
      "ĠQue": 6083,
      "Ġsang": 6084,
      "Ġtut": 6085,
      "Ġdust": 6086,
      "Ġdanger": 6087,
      "ĠwÃ¤r": 6088,
      "Ġwrite": 6089,
      "teid": 6090,
      "Ġbaby": 6091,
      "reien": 6092,
      "aste": 6093,
      "Ġfold": 6094,
      "Ġfrown": 6095,
      "Ġgently": 6096,
      "ingt": 6097,
      "Ã¤glich": 6098,
      "cked": 6099,
      "iring": 6100,
      "ichtige": 6101,
      "ĠGates": 6102,
      "Ġanfangen": 6103,
      "Ġsag": 6104,
      "Ġsoviel": 6105,
      "ĠBeine": 6106,
      "ĠHem": 6107,
      "ereien": 6108,
      "thor": 6109,
      "ĠWit": 6110,
      "ĠWissen": 6111,
      "ĠWeil": 6112,
      "Ġschreiben": 6113,
      "Ġschlief": 6114,
      "ĠEigen": 6115,
      "annen": 6116,
      "kehren": 6117,
      "ĠRudolf": 6118,
      "ĠRubel": 6119,
      "hns": 6120,
      "ĠCardinal": 6121,
      "Ġconce": 6122,
      "ĠVert": 6123,
      "ĠbegrÃ¼": 6124,
      "ĠErregung": 6125,
      "ĠErklÃ¤r": 6126,
      "Ġlose": 6127,
      "Ġfeat": 6128,
      "ĠweiÃŁe": 6129,
      "Ġwollt": 6130,
      "Ġgethan": 6131,
      "Ġsmo": 6132,
      "tsein": 6133,
      "sko": 6134,
      "ledge": 6135,
      "Ġgeschrieben": 6136,
      "Ġschwach": 6137,
      "Ġbegannen": 6138,
      "ĠHaup": 6139,
      "atcher": 6140,
      "phon": 6141,
      "Ġerstaun": 6142,
      "Ġcurtain": 6143,
      "Ġwriting": 6144,
      "Ġmerely": 6145,
      "ĠTepp": 6146,
      "Ġlower": 6147,
      "ĠÃ¼br": 6148,
      "ĠIwanowna": 6149,
      "Ġlaughed": 6150,
      "Ġsorry": 6151,
      "ĠDasein": 6152,
      "Ġdarkness": 6153,
      "Ġmajest": 6154,
      "ĠWohl": 6155,
      "ĠWieder": 6156,
      "ĠnÃ¤herte": 6157,
      "ĠerzÃ¤hlen": 6158,
      "Unter": 6159,
      "Ġsurprise": 6160,
      "ĠZukunft": 6161,
      "Ã¨ve": 6162,
      "ĠWohnung": 6163,
      "ĠJacques": 6164,
      "Stepan": 6165,
      "Ġsoldiers": 6166,
      "ildete": 6167,
      "ĠMittagessen": 6168,
      "ĠMusik": 6169,
      "ĠThrÃ¤nen": 6170,
      "Ġphilosoph": 6171,
      "hafte": 6172,
      "Ã¢te": 6173,
      "Ġcreature": 6174,
      "GewiÃŁ": 6175,
      "Ġdivorce": 6176,
      "ĠGateshead": 6177,
      "AS": 6178,
      "Bitte": 6179,
      "Tis": 6180,
      "jun": 6181,
      "mte": 6182,
      "richter": 6183,
      "set": 6184,
      "uit": 6185,
      "ĠÃ¶": 6186,
      "nder": 6187,
      "Ġthrow": 6188,
      "itary": 6189,
      "onc": 6190,
      "Ġnerv": 6191,
      "Ġfly": 6192,
      "elm": 6193,
      "Ġcat": 6194,
      "ĠSc": 6195,
      "ĠzÃ¤rt": 6196,
      "Ġpup": 6197,
      "Ġanf": 6198,
      "Ġsahen": 6199,
      "gefÃ¼hl": 6200,
      "ĠKor": 6201,
      "ĠTie": 6202,
      "ĠTat": 6203,
      "Ġverstanden": 6204,
      "Ġgehalten": 6205,
      "ĠWes": 6206,
      "ĠWol": 6207,
      "Ġschuld": 6208,
      "ession": 6209,
      "Ġunn": 6210,
      "Ġseven": 6211,
      "ĠPier": 6212,
      "Ġmeas": 6213,
      "olute": 6214,
      "ument": 6215,
      "ĠZauber": 6216,
      "icul": 6217,
      "ĠStand": 6218,
      "absicht": 6219,
      "Ġshout": 6220,
      "Ġshop": 6221,
      "Ġausges": 6222,
      "Ġauseinander": 6223,
      "ortun": 6224,
      "Ġvoraus": 6225,
      "ĠvorwÃ¤rts": 6226,
      "Ġlif": 6227,
      "Ġexec": 6228,
      "rupt": 6229,
      "Ġgewohn": 6230,
      "Ġbegle": 6231,
      "ĠErst": 6232,
      "ĠOff": 6233,
      "Ã¤tz": 6234,
      "Ġgetroffen": 6235,
      "ĠmuÃŁt": 6236,
      "ĠThurm": 6237,
      "Ã¼tze": 6238,
      "Ġsprachen": 6239,
      "Ġvielen": 6240,
      "Ġdrehte": 6241,
      "Ġwagte": 6242,
      "avasov": 6243,
      "ĠSchwÃ¤": 6244,
      "Ġnews": 6245,
      "ĠFlam": 6246,
      "Ġregret": 6247,
      "ĠKindern": 6248,
      "Ġaffair": 6249,
      "Ġsuffering": 6250,
      "Ġadvant": 6251,
      "Ġspoken": 6252,
      "Ġschwarze": 6253,
      "ĠCharakter": 6254,
      "ĠfrÃ¼heren": 6255,
      "ĠWochen": 6256,
      "zeugung": 6257,
      "ĠPapa": 6258,
      "ĠBegriff": 6259,
      "Ġsnow": 6260,
      "ĠAdvokat": 6261,
      "Ġangenehm": 6262,
      "Ġlearned": 6263,
      "Ġfreundlich": 6264,
      "gypt": 6265,
      "Ġheiligen": 6266,
      "Ġgazed": 6267,
      "Ġschweigend": 6268,
      "Ġexperien": 6269,
      "Ġdetails": 6270,
      "ĠNikolai": 6271,
      "Ġgroup": 6272,
      "Ġexactly": 6273,
      "Ġsplendid": 6274,
      "ĠBeispiel": 6275,
      "Ġprepared": 6276,
      "Ġtongue": 6277,
      "ĠKaufmann": 6278,
      "ĠSchauspiel": 6279,
      "Perhaps": 6280,
      "Monsieur": 6281,
      "Noch": 6282,
      "aid": 6283,
      "lam": 6284,
      "por": 6285,
      "tle": 6286,
      "Ġsla": 6287,
      "Ġwein": 6288,
      "iesen": 6289,
      "iche": 6290,
      "Ġmutter": 6291,
      "iture": 6292,
      "onne": 6293,
      "anach": 6294,
      "Ġlink": 6295,
      "Ġdied": 6296,
      "ĠSwijasch": 6297,
      "Ġeingesch": 6298,
      "Ġpath": 6299,
      "Ġbeugte": 6300,
      "Ġbeabsicht": 6301,
      "Ġhate": 6302,
      "cker": 6303,
      "Ġnote": 6304,
      "Ġnose": 6305,
      "ĠGatt": 6306,
      "rocken": 6307,
      "ĠIhren": 6308,
      "Ġsieben": 6309,
      "ĠKa": 6310,
      "ĠKla": 6311,
      "ĠBahn": 6312,
      "ĠHof": 6313,
      "Ġstreckte": 6314,
      "ĠFar": 6315,
      "ends": 6316,
      "raph": 6317,
      "Ġseated": 6318,
      "ĠPol": 6319,
      "ĠRel": 6320,
      "Ġimmen": 6321,
      "indungen": 6322,
      "Ġneg": 6323,
      "ĠZuf": 6324,
      "ĠStahl": 6325,
      "ĠNicholas": 6326,
      "Ġdeg": 6327,
      "Ġchest": 6328,
      "uÃŁtsein": 6329,
      "Ġhinab": 6330,
      "Ġamb": 6331,
      "ĠGefahr": 6332,
      "Ã¤tter": 6333,
      "ishment": 6334,
      "ĠGesich": 6335,
      "Ġstellen": 6336,
      "onder": 6337,
      "jewna": 6338,
      "pfel": 6339,
      "Ġklop": 6340,
      "blicken": 6341,
      "ĠAlexis": 6342,
      "esterday": 6343,
      "Ġresp": 6344,
      "ovna": 6345,
      "Ġdoors": 6346,
      "Ġbreast": 6347,
      "Ġfreud": 6348,
      "ĠHerrschaft": 6349,
      "Ġtraf": 6350,
      "Ġletters": 6351,
      "sichtlich": 6352,
      "ĠHeim": 6353,
      "unkte": 6354,
      "ĠProf": 6355,
      "gress": 6356,
      "Ġearly": 6357,
      "haftig": 6358,
      "Ġwritten": 6359,
      "Ġattack": 6360,
      "schlÃ¤": 6361,
      "zÃ¤hl": 6362,
      "Ġterror": 6363,
      "Ġoccur": 6364,
      "Ġgrave": 6365,
      "gewÃ¶hn": 6366,
      "Ġhurry": 6367,
      "Ġmonth": 6368,
      "Ġkleiner": 6369,
      "Ġbrauche": 6370,
      "ĠIhrem": 6371,
      "ĠGemein": 6372,
      "ĠSonnt": 6373,
      "ĠVersuch": 6374,
      "Ġofficial": 6375,
      "ĠungefÃ¤hr": 6376,
      "Ġgenerally": 6377,
      "Ġintrodu": 6378,
      "ĠÃĦr": 6379,
      "ĠJacob": 6380,
      "ĠunglÃ¼cklich": 6381,
      "Ġaccompan": 6382,
      "ĠSalon": 6383,
      "Nevertheless": 6384,
      "ĠSoldaten": 6385,
      "ĠZiege": 6386,
      "Ġpavement": 6387,
      "ĠFreiheit": 6388,
      "ĠVeslovsky": 6389,
      "Ġempty": 6390,
      "ĠGefÃ¼hle": 6391,
      "ĠfortwÃ¤hrend": 6392,
      "\",": 6393,
      "Ge": 6394,
      "Nat": 6395,
      "cely": 6396,
      "hood": 6397,
      "my": 6398,
      "mel": 6399,
      "ny": 6400,
      "rass": 6401,
      "she": 6402,
      "win": 6403,
      "wind": 6404,
      "ĠÃ¤ngst": 6405,
      "erp": 6406,
      "inated": 6407,
      "Ġsought": 6408,
      "Ġtele": 6409,
      "ieten": 6410,
      "Ġmod": 6411,
      "Ġbrief": 6412,
      "Ġbildete": 6413,
      "ative": 6414,
      "ĠlÃ¤": 6415,
      "Ġlying": 6416,
      "Ã¼ch": 6417,
      "Ġtowers": 6418,
      "Ġcost": 6419,
      "Ġcatch": 6420,
      "Ġeinst": 6421,
      "Ġerwe": 6422,
      "etten": 6423,
      "tence": 6424,
      "ĠGu": 6425,
      "Ã¶ch": 6426,
      "Ã¶re": 6427,
      "Ġsogleich": 6428,
      "ĠBour": 6429,
      "ĠHelen": 6430,
      "ĠFor": 6431,
      "eien": 6432,
      "Ġrou": 6433,
      "Ġrust": 6434,
      "Ġrise": 6435,
      "Ġrub": 6436,
      "Ġschmerz": 6437,
      "ĠEd": 6438,
      "ĠEx": 6439,
      "ĠEif": 6440,
      "Ġunauf": 6441,
      "usse": 6442,
      "Ġimpression": 6443,
      "Ġnachzu": 6444,
      "Ġexist": 6445,
      "ĠCol": 6446,
      "ĠAuff": 6447,
      "ellen": 6448,
      "Ġamid": 6449,
      "Ġarbei": 6450,
      "ĠVermÃ¶gen": 6451,
      "Ġwiederum": 6452,
      "Ġglancing": 6453,
      "Ġentsetz": 6454,
      "ĠErfolg": 6455,
      "Ã¤nde": 6456,
      "Ġlooks": 6457,
      "Ġfeared": 6458,
      "ischte": 6459,
      "barrass": 6460,
      "Ġhierher": 6461,
      "Ġways": 6462,
      "Ġresem": 6463,
      "ĠCharmolue": 6464,
      "ppenole": 6465,
      "Ġbroad": 6466,
      "ĠAlexandrov": 6467,
      "Ġlangu": 6468,
      "Ġdisting": 6469,
      "Ġeinzel": 6470,
      "Ġpointing": 6471,
      "Ġhelfen": 6472,
      "Ġcurious": 6473,
      "Ġmerry": 6474,
      "ĠNachbar": 6475,
      "Ġschlechter": 6476,
      "Ġtriumph": 6477,
      "Ġfalling": 6478,
      "Ġhearing": 6479,
      "boten": 6480,
      "ĠÃľberzeugung": 6481,
      "Ġkurzen": 6482,
      "Ġhurt": 6483,
      "Ġexplained": 6484,
      "Ġcondition": 6485,
      "onstantine": 6486,
      "Ġopposite": 6487,
      "Ġanzusehen": 6488,
      "Ġimagine": 6489,
      "Ã¼tzt": 6490,
      "Ġverzeihen": 6491,
      "Ġpromised": 6492,
      "Ġgallery": 6493,
      "Ġtrembled": 6494,
      "Ġbreakfast": 6495,
      "Ġcentury": 6496,
      "Ġforehead": 6497,
      "ĠBÃ¼rst": 6498,
      "ĠWirkung": 6499,
      "Ġallgemeinen": 6500,
      "Ġobserved": 6501,
      "Ġbemerkt": 6502,
      "Ġverschwunden": 6503,
      "Ġprincipal": 6504,
      "Ġpulled": 6505,
      "ĠScheidung": 6506,
      "ĠÃ¤rgerlich": 6507,
      "obert": 6508,
      "Ġoccasion": 6509,
      "Ġtenderness": 6510,
      "jali": 6511,
      "Aus": 6512,
      "AuÃŁer": 6513,
      "ES": 6514,
      "Ganz": 6515,
      "Very": 6516,
      "ax": 6517,
      "far": 6518,
      "hause": 6519,
      "haften": 6520,
      "ki": 6521,
      "pit": 6522,
      "pers": 6523,
      "sie": 6524,
      "vis": 6525,
      "Ã´": 6526,
      "Ġabend": 6527,
      "Ġsom": 6528,
      "Ġtau": 6529,
      "Ġtum": 6530,
      "Ġdanach": 6531,
      "Ġwann": 6532,
      "Ġwide": 6533,
      "Ġhot": 6534,
      "ĠhÃ¤ÃŁ": 6535,
      "Ġmut": 6536,
      "Ġbas": 6537,
      "Ġnennen": 6538,
      "arted": 6539,
      "lligen": 6540,
      "ories": 6541,
      "Ġvent": 6542,
      "ĠSachen": 6543,
      "ĠSviyazhsky": 6544,
      "Ġkle": 6545,
      "irg": 6546,
      "ĠAlt": 6547,
      "Ġheftig": 6548,
      "Ġancient": 6549,
      "ĠMars": 6550,
      "Ġeat": 6551,
      "Ġherz": 6552,
      "Ġdare": 6553,
      "ĠHaltung": 6554,
      "Ġdenk": 6555,
      "Ġverein": 6556,
      "Ġstation": 6557,
      "ĠFahr": 6558,
      "Ġrein": 6559,
      "ĠgefÃ¼hrt": 6560,
      "ĠWinter": 6561,
      "ĠWirtschaft": 6562,
      "ĠWinkel": 6563,
      "eile": 6564,
      "Ġrate": 6565,
      "Ġsea": 6566,
      "ĠVog": 6567,
      "ilf": 6568,
      "ilar": 6569,
      "ĠSchle": 6570,
      "Ġfranz": 6571,
      "ĠZelle": 6572,
      "Ġlebte": 6573,
      "Ġabge": 6574,
      "ĠNie": 6575,
      "ĠNase": 6576,
      "ĠJunge": 6577,
      "rily": 6578,
      "Ġexcited": 6579,
      "ĠLehr": 6580,
      "ĠCar": 6581,
      "Ġwouldn": 6582,
      "ape": 6583,
      "atet": 6584,
      "Ġwerd": 6585,
      "Ġsug": 6586,
      "ĠGeheimnis": 6587,
      "Ġgover": 6588,
      "ĠErn": 6589,
      "reiÃŁen": 6590,
      "Ġenorm": 6591,
      "Ġenjo": 6592,
      "Ġgrat": 6593,
      "Ġunserer": 6594,
      "eilen": 6595,
      "Ġclim": 6596,
      "Ġzwanzig": 6597,
      "Ġputting": 6598,
      "Ġdistant": 6599,
      "ĠFrank": 6600,
      "ĠFrance": 6601,
      "ĠEntsetzen": 6602,
      "Ġclock": 6603,
      "Ã¼hte": 6604,
      "Ġbesonderen": 6605,
      "fÃ¤lt": 6606,
      "Ġordered": 6607,
      "ĠGewohn": 6608,
      "Ġaffection": 6609,
      "gestanden": 6610,
      "gemacht": 6611,
      "Ġhelped": 6612,
      "ĠKampf": 6613,
      "Ġdeinem": 6614,
      "Ġideas": 6615,
      "Ġbrauchen": 6616,
      "ĠGemÃ¼": 6617,
      "Ġmaid": 6618,
      "Ġimportance": 6619,
      "ĠKatavasov": 6620,
      "ĠBÃ¼cher": 6621,
      "ĠPersonen": 6622,
      "ĠWohnzimmer": 6623,
      "Ġtrembling": 6624,
      "Ġquarre": 6625,
      "ĠSprache": 6626,
      "Ġbirds": 6627,
      "ridor": 6628,
      "Ġentrance": 6629,
      "Ġcircumstances": 6630,
      "Ġfetch": 6631,
      "Ġashamed": 6632,
      "ĠUeber": 6633,
      "ĠSchicksal": 6634,
      "ĠBÃ¼rstner": 6635,
      "ĠfranzÃ¶s": 6636,
      "Ġenormous": 6637,
      "ED": 6638,
      "Look": 6639,
      "Nie": 6640,
      "Two": 6641,
      "bach": 6642,
      "bnis": 6643,
      "brechen": 6644,
      "ech": 6645,
      "iÃŁen": 6646,
      "just": 6647,
      "osten": 6648,
      "pft": 6649,
      "right": 6650,
      "twas": 6651,
      "ĠÃ¤lter": 6652,
      "Ġach": 6653,
      "Ġdi": 6654,
      "ĠdÃ¼n": 6655,
      "Ġhart": 6656,
      "Ġthir": 6657,
      "Ġmaint": 6658,
      "Ġble": 6659,
      "Ġbild": 6660,
      "Ġbleich": 6661,
      "reff": 6662,
      "Ġfuhren": 6663,
      "atre": 6664,
      "orted": 6665,
      "Ġlot": 6666,
      "igne": 6667,
      "ĠSu": 6668,
      "ĠSor": 6669,
      "ĠSinne": 6670,
      "ĠSerezha": 6671,
      "Ã¤llt": 6672,
      "Ġzun": 6673,
      "ÃŁig": 6674,
      "het": 6675,
      "Ġnod": 6676,
      "ĠGet": 6677,
      "aches": 6678,
      "roh": 6679,
      "ĠMat": 6680,
      "Ã¶ÃŁe": 6681,
      "ĠKreuz": 6682,
      "ĠBast": 6683,
      "anders": 6684,
      "schew": 6685,
      "Ġyell": 6686,
      "ĠLau": 6687,
      "ĠFÃ¤": 6688,
      "Ġreasons": 6689,
      "ĠEur": 6690,
      "Ġallow": 6691,
      "annten": 6692,
      "bew": 6693,
      "ĠSchild": 6694,
      "aining": 6695,
      "icing": 6696,
      "osity": 6697,
      "Ġspot": 6698,
      "Ġwear": 6699,
      "Ġshone": 6700,
      "ulen": 6701,
      "ĠÃ¼berw": 6702,
      "Ġlik": 6703,
      "ĠAnspruch": 6704,
      "ĠJagd": 6705,
      "ours": 6706,
      "ĠfÃ¼rchtete": 6707,
      "eller": 6708,
      "ousin": 6709,
      "Ġgewisse": 6710,
      "ĠVerstand": 6711,
      "ĠVerstÃ¤ndnis": 6712,
      "ĠlieÃŁen": 6713,
      "ĠGesichter": 6714,
      "Ġenerg": 6715,
      "Ġbefried": 6716,
      "udarde": 6717,
      "Ã¤chlich": 6718,
      "Ġprote": 6719,
      "ify": 6720,
      "Ġremind": 6721,
      "Ġembarrass": 6722,
      "ĠlaÃŁ": 6723,
      "ĠSpitze": 6724,
      "getreten": 6725,
      "Ġbestand": 6726,
      "ĠHex": 6727,
      "ĠzwÃ¶l": 6728,
      "Ġsilver": 6729,
      "ĠGeschmack": 6730,
      "ĠAufg": 6731,
      "Ã¤mmer": 6732,
      "ĠProvin": 6733,
      "âĢĶ\"": 6734,
      "neten": 6735,
      "ĠNeben": 6736,
      "bede": 6737,
      "haftigkeit": 6738,
      "spiel": 6739,
      "Ġconfused": 6740,
      "Ġebenfalls": 6741,
      "Because": 6742,
      "Ġincre": 6743,
      "Ġdepart": 6744,
      "ĠschÃ¶ner": 6745,
      "Ġdropped": 6746,
      "tritt": 6747,
      "Ġbrauchte": 6748,
      "Ġerwartete": 6749,
      "untarily": 6750,
      "Ġungehe": 6751,
      "ĠKatawas": 6752,
      "ĠMantel": 6753,
      "Ġeilte": 6754,
      "ĠBÃ¼rger": 6755,
      "Ġschrecklich": 6756,
      "ĠStreit": 6757,
      "Ġjedesmal": 6758,
      "Ġspielen": 6759,
      "athedral": 6760,
      "icherheit": 6761,
      "ĠCoppenole": 6762,
      "ĠbÃ¶se": 6763,
      "ĠZweck": 6764,
      "marsch": 6765,
      "Ġmotionless": 6766,
      "Ġscholar": 6767,
      "Ġsituation": 6768,
      "Ġstaircase": 6769,
      "ĠZusammen": 6770,
      "Ġjourney": 6771,
      "Ġpocket": 6772,
      "Ġeducation": 6773,
      "ĠLeser": 6774,
      "ĠLowood": 6775,
      "Ġimmense": 6776,
      "Joe": 6777,
      "Nichts": 6778,
      "bet": 6779,
      "baz": 6780,
      "cer": 6781,
      "eter": 6782,
      "iently": 6783,
      "punkt": 6784,
      "zut": 6785,
      "erz": 6786,
      "Ġaunt": 6787,
      "Ġwund": 6788,
      "Ġhig": 6789,
      "Ġhang": 6790,
      "Ġbess": 6791,
      "Ġbowed": 6792,
      "reisen": 6793,
      "Ġfas": 6794,
      "Ġfully": 6795,
      "atis": 6796,
      "orous": 6797,
      "Ġinnoc": 6798,
      "Ġvirt": 6799,
      "Ġdieselbe": 6800,
      "ĠSen": 6801,
      "ĠSund": 6802,
      "Ã¤re": 6803,
      "legenheit": 6804,
      "Ġpit": 6805,
      "Ġpaused": 6806,
      "Ġbekam": 6807,
      "unes": 6808,
      "Ġkill": 6809,
      "ĠkÃ¼mmer": 6810,
      "irr": 6811,
      "Ġheut": 6812,
      "ĠGolen": 6813,
      "Ġsagten": 6814,
      "Ã¶st": 6815,
      "ĠKinn": 6816,
      "ams": 6817,
      "ĠLÃ¤rm": 6818,
      "Ġverle": 6819,
      "Ġverwand": 6820,
      "ĠFein": 6821,
      "Ġredete": 6822,
      "Ġreceive": 6823,
      "ĠWal": 6824,
      "Ġriver": 6825,
      "Ġunw": 6826,
      "annah": 6827,
      "ĠPunkt": 6828,
      "ĠDurch": 6829,
      "ĠSchwei": 6830,
      "Ġdeswegen": 6831,
      "Ġleaves": 6832,
      "ĠSturm": 6833,
      "agten": 6834,
      "Ġaband": 6835,
      "Ġshaking": 6836,
      "etzter": 6837,
      "antic": 6838,
      "ĠJul": 6839,
      "Ġexce": 6840,
      "ĠComm": 6841,
      "ĠfÃ¼rchte": 6842,
      "ruh": 6843,
      "rauch": 6844,
      "log": 6845,
      "zufrieden": 6846,
      "ishop": 6847,
      "Ã¤ndig": 6848,
      "Ġstepped": 6849,
      "ackt": 6850,
      "ĠBekannten": 6851,
      "idete": 6852,
      "Ġsomewhat": 6853,
      "Ġgrad": 6854,
      "ĠmuÃŁten": 6855,
      "ifice": 6856,
      "Ġplan": 6857,
      "Ġoffered": 6858,
      "Ġusually": 6859,
      "immte": 6860,
      "fluÃŁ": 6861,
      "Ġversich": 6862,
      "Ġpassage": 6863,
      "ĠSpan": 6864,
      "izing": 6865,
      "Ġspricht": 6866,
      "Ġtrain": 6867,
      "Ġplaces": 6868,
      "itzer": 6869,
      "Ġgelang": 6870,
      "Ġlanger": 6871,
      "Ġerschrocken": 6872,
      "Ġopening": 6873,
      "Ġstrahl": 6874,
      "grunde": 6875,
      "Ġ...Â«,": 6876,
      "ĠUnterhaltung": 6877,
      "ĠGewissen": 6878,
      "ĠKÃ¶nigin": 6879,
      "Ġpresently": 6880,
      "ĠÃ¼brigens": 6881,
      "Ġneeded": 6882,
      "SchlieÃŁlich": 6883,
      "aune": 6884,
      "Ġvisible": 6885,
      "Ġdrove": 6886,
      "Ġmidst": 6887,
      "ĠWoche": 6888,
      "Ġgelegt": 6889,
      "scherbaz": 6890,
      "ĠRouault": 6891,
      "Ã¨re": 6892,
      "Ġordentlich": 6893,
      "Ġfalse": 6894,
      "handlung": 6895,
      "Ġverschiedenen": 6896,
      "Ġverliebt": 6897,
      "ĠBewuÃŁtsein": 6898,
      "Ġestate": 6899,
      "Ġsonderbar": 6900,
      "ĠIvanovna": 6901,
      "Ġaugenblick": 6902,
      "hÃ¼ter": 6903,
      "Ġhurriedly": 6904,
      "ĠKnaben": 6905,
      "ĠInteresse": 6906,
      "Ġpurpose": 6907,
      "ĠBeziehungen": 6908,
      "ĠSanct": 6909,
      "ĠErscheinung": 6910,
      "ĠKrankheit": 6911,
      "ĠWitwe": 6912,
      "ĠWeilchen": 6913,
      "ĠOffiz": 6914,
      "Ġgoverness": 6915,
      "!--": 6916,
      "De": 6917,
      "Jed": 6918,
      "More": 6919,
      "Miss": 6920,
      "Soll": 6921,
      "Seit": 6922,
      "gment": 6923,
      "ips": 6924,
      "lin": 6925,
      "lined": 6926,
      "mÃ¤dchen": 6927,
      "tscherbaz": 6928,
      "wÃ¤": 6929,
      "wur": 6930,
      "Ãľber": 6931,
      "Ġstern": 6932,
      "ĠtÃ¶": 6933,
      "Ġdrugg": 6934,
      "teenth": 6935,
      "Ġmache": 6936,
      "reden": 6937,
      "asy": 6938,
      "Ġfault": 6939,
      "Ġintended": 6940,
      "Ġlack": 6941,
      "Ġcolle": 6942,
      "Ġpick": 6943,
      "Ġpause": 6944,
      "term": 6945,
      "tered": 6946,
      "Ġderart": 6947,
      "aux": 6948,
      "irm": 6949,
      "iration": 6950,
      "tens": 6951,
      "ĠAtem": 6952,
      "Ġsiehst": 6953,
      "Ġease": 6954,
      "Ġdam": 6955,
      "Ġyesterday": 6956,
      "Ġstro": 6957,
      "Ġstup": 6958,
      "Ġrepr": 6959,
      "Ġregel": 6960,
      "Ġrevol": 6961,
      "ĠWider": 6962,
      "Ġrender": 6963,
      "Ġrushed": 6964,
      "Ġschlafen": 6965,
      "ĠPort": 6966,
      "ĠPost": 6967,
      "ĠPolly": 6968,
      "ĠRÃ¤": 6969,
      "ĠSchtscherbaz": 6970,
      "ĠZorn": 6971,
      "icated": 6972,
      "Ġleid": 6973,
      "Ġlehnte": 6974,
      "undert": 6975,
      "ĠNo": 6976,
      "ĠJe": 6977,
      "ĠJan": 6978,
      "Ġchim": 6979,
      "riz": 6980,
      "laÃŁ": 6981,
      "ĠLeiden": 6982,
      "astic": 6983,
      "Ġwirk": 6984,
      "stein": 6985,
      "Ġsuit": 6986,
      "Ġrow": 6987,
      "ounds": 6988,
      "rÃ¤ng": 6989,
      "Ġtrinken": 6990,
      "Thus": 6991,
      "ĠBefehl": 6992,
      "Ġblame": 6993,
      "blei": 6994,
      "ĠfÃ¼hle": 6995,
      "losigkeit": 6996,
      "ĠReis": 6997,
      "Ġoffer": 6998,
      "obald": 6999,
      "ĠFreuden": 7000,
      "ĠmÃ¶ge": 7001,
      "Ġgleichzeitig": 7002,
      "Ġkehrte": 7003,
      "Ġcoffee": 7004,
      "Ġparty": 7005,
      "scheu": 7006,
      "Ġworking": 7007,
      "Ġeigenes": 7008,
      "Ġbesondere": 7009,
      "ĠEssen": 7010,
      "Ġorders": 7011,
      "ĠBaukunst": 7012,
      "Schon": 7013,
      "ĠauÃŁerdem": 7014,
      "Ġinstant": 7015,
      "ĠSchwestern": 7016,
      "Ġapproaching": 7017,
      "Ġedifice": 7018,
      "ummte": 7019,
      "ĠSonnen": 7020,
      "Ġentschieden": 7021,
      "Ġeasily": 7022,
      "ĠBewegungen": 7023,
      "Ġruin": 7024,
      "Ġmistake": 7025,
      "ĠFalle": 7026,
      "Ġseltsame": 7027,
      "Ġabsor": 7028,
      "straÃŁe": 7029,
      "ĠRechts": 7030,
      "Ġpossib": 7031,
      "ĠBeschÃ¤ft": 7032,
      "ĠMajest": 7033,
      "ĠKerze": 7034,
      "ĠIndian": 7035,
      "Ġmoral": 7036,
      "bye": 7037,
      "Ġdestro": 7038,
      "ĠKriegs": 7039,
      "Ġescape": 7040,
      "ĠBenehmen": 7041,
      "ĠGuts": 7042,
      "ĠStudent": 7043,
      "wesenheit": 7044,
      "ĠKrÃ¤fte": 7045,
      "ĠSchÃ¼l": 7046,
      "Ġdescended": 7047,
      "Ġacquaintance": 7048,
      "Ġprivate": 7049,
      "Ġexplanation": 7050,
      "Ġcoachman": 7051,
      "ĠGedÃ¤chtnis": 7052,
      "ĠWeslow": 7053,
      "Ġklopfte": 7054,
      "NatÃ¼rlich": 7055,
      "Ġdruggist": 7056,
      "Dam": 7057,
      "DaÃŁ": 7058,
      "Somet": 7059,
      "Sergei": 7060,
      "Wei": 7061,
      "Zum": 7062,
      "ait": 7063,
      "des": 7064,
      "fert": 7065,
      "fried": 7066,
      "hor": 7067,
      "not": 7068,
      "satz": 7069,
      "yn": 7070,
      "Ġ,": 7071,
      "erlich": 7072,
      "enig": 7073,
      "Ġdank": 7074,
      "Ġhes": 7075,
      "Ġhanging": 7076,
      "ieber": 7077,
      "Ġmill": 7078,
      "Ġmount": 7079,
      "Ġnine": 7080,
      "anwhile": 7081,
      "Ġfool": 7082,
      "Ġlon": 7083,
      "Ġcup": 7084,
      "ĠSessel": 7085,
      "Ġpushed": 7086,
      "cks": 7087,
      "ĠAt": 7088,
      "Ġauthor": 7089,
      "Ġwash": 7090,
      "bereit": 7091,
      "ĠIde": 7092,
      "ĠKanz": 7093,
      "entlichen": 7094,
      "ĠHinder": 7095,
      "ĠHÃ´": 7096,
      "Ġyield": 7097,
      "Ġverab": 7098,
      "Ġstairs": 7099,
      "Ġstolz": 7100,
      "Ġrever": 7101,
      "Ġgep": 7102,
      "Ġgezwungen": 7103,
      "Ġrare": 7104,
      "Ġrough": 7105,
      "essor": 7106,
      "Ã¼rz": 7107,
      "ĠPat": 7108,
      "ĠPause": 7109,
      "hton": 7110,
      "oots": 7111,
      "Ġneun": 7112,
      "ickten": 7113,
      "Ġleidenschaft": 7114,
      "Ġspar": 7115,
      "ĠStille": 7116,
      "quet": 7117,
      "orelli": 7118,
      "Ġvorn": 7119,
      "antas": 7120,
      "oped": 7121,
      "ĠLeidenschaft": 7122,
      "mete": 7123,
      "Ġbegreifen": 7124,
      "Ġwhence": 7125,
      "Ġagre": 7126,
      "Ġgesund": 7127,
      "ĠprÃ¼": 7128,
      "Ġmehrere": 7129,
      "Ġseek": 7130,
      "ĠGras": 7131,
      "ĠGrÃ¨ve": 7132,
      "platz": 7133,
      "Ġgrey": 7134,
      "warm": 7135,
      "skraft": 7136,
      "ivil": 7137,
      "ĠAussehen": 7138,
      "Ġprec": 7139,
      "Ġdoorkeeper": 7140,
      "Ġzweif": 7141,
      "Ã¼ssen": 7142,
      "Ġlauter": 7143,
      "Ġwaist": 7144,
      "Ġaccused": 7145,
      "ĠerwÃ¤": 7146,
      "ĠAbschied": 7147,
      "ĠgefaÃŁt": 7148,
      "ĠHaufen": 7149,
      "ĠEntz": 7150,
      "Ġschlimmer": 7151,
      "Ġnearer": 7152,
      "ĠEshton": 7153,
      "fÃ¤llig": 7154,
      "holen": 7155,
      "cherbat": 7156,
      "Ġwishing": 7157,
      "ĠOrt": 7158,
      "Ġsupport": 7159,
      "Ġadvice": 7160,
      "Ġassist": 7161,
      "ĠBettler": 7162,
      "mutz": 7163,
      "ĠKatze": 7164,
      "Ġopportun": 7165,
      "Ġschrieb": 7166,
      "ĠSaw": 7167,
      "ĠSaal": 7168,
      "Ġeleg": 7169,
      "ĠerklÃ¤ren": 7170,
      "Ġcrying": 7171,
      "Ġquarter": 7172,
      "Ġsatisfa": 7173,
      "Ġmenschlichen": 7174,
      "Ġparticularly": 7175,
      "Ġrequired": 7176,
      "ĠVerbindung": 7177,
      "Ġcarrying": 7178,
      "known": 7179,
      "Ġreligion": 7180,
      "ĠZwischen": 7181,
      "ĠDunkelheit": 7182,
      "Ġunangenehm": 7183,
      "ĠLÃ¶wen": 7184,
      "ĠUrsache": 7185,
      "ĠÃ¼berras": 7186,
      "Ġscarcely": 7187,
      "Ġceased": 7188,
      "Ġsurrounded": 7189,
      "ĠBeamten": 7190,
      "ĠAnstrengung": 7191,
      "Ġseufzte": 7192,
      "ĠHarper": 7193,
      "ĠauÃŁerordentlich": 7194,
      "ĠShcherbat": 7195,
      "ĠQueen": 7196,
      "ĠErklÃ¤rung": 7197,
      "Ġfeatures": 7198,
      "ĠHaupte": 7199,
      "Ġexperienced": 7200,
      "Ġlinks": 7201,
      "ĠRelig": 7202,
      "ĠFrankreich": 7203,
      "ĠKatawasow": 7204,
      ").": 7205,
      "Ar": 7206,
      "Denn": 7207,
      "Durch": 7208,
      "Gott": 7209,
      "Haben": 7210,
      "Mich": 7211,
      "Mary": 7212,
      "Or": 7213,
      "Please": 7214,
      "Wollen": 7215,
      "dies": 7216,
      "fig": 7217,
      "here": 7218,
      "ias": 7219,
      "iwa": 7220,
      "ket": 7221,
      "light": 7222,
      "mon": 7223,
      "oben": 7224,
      "richten": 7225,
      "rÃ¼ckt": 7226,
      "sah": 7227,
      "vre": 7228,
      "wick": 7229,
      "yr": 7230,
      "erem": 7231,
      "Ġsong": 7232,
      "Ġsisters": 7233,
      "Ġmas": 7234,
      "istes": 7235,
      "Ġgay": 7236,
      "Ġgrie": 7237,
      "oura": 7238,
      "Ġobst": 7239,
      "Ġvict": 7240,
      "Ġcustom": 7241,
      "ĠSicherheit": 7242,
      "Ġzogen": 7243,
      "Ġhated": 7244,
      "Ġkilled": 7245,
      "Ġann": 7246,
      "road": 7247,
      "Ġeg": 7248,
      "ĠKlo": 7249,
      "ĠKomm": 7250,
      "Ġdenselben": 7251,
      "ĠLager": 7252,
      "ĠTer": 7253,
      "ĠTasche": 7254,
      "ĠstÃ¤r": 7255,
      "ĠFing": 7256,
      "Ġhist": 7257,
      "ĠEgypt": 7258,
      "Ġalarm": 7259,
      "endent": 7260,
      "Ġunex": 7261,
      "rain": 7262,
      "ragt": 7263,
      "ĠPrÃ¼": 7264,
      "ĠVern": 7265,
      "ools": 7266,
      "Ġfright": 7267,
      "ĠZÃ¤rt": 7268,
      "undzw": 7269,
      "abrik": 7270,
      "Ġshock": 7271,
      "ĠÃ¼berlegen": 7272,
      "ĠName": 7273,
      "Ġchap": 7274,
      "rifft": 7275,
      "Ġcontempt": 7276,
      "Ġgewiss": 7277,
      "Ġamus": 7278,
      "fenster": 7279,
      "Ġbegriff": 7280,
      "stem": 7281,
      "Ġliebt": 7282,
      "Ġsteckte": 7283,
      "Ġprison": 7284,
      "Ġunters": 7285,
      "Ġloft": 7286,
      "Ġprogress": 7287,
      "Ġgrim": 7288,
      "ograph": 7289,
      "iÃŁt": 7290,
      "Ġgleicher": 7291,
      "Ġgleichen": 7292,
      "Ġbehand": 7293,
      "izon": 7294,
      "ĠChor": 7295,
      "ĠAlter": 7296,
      "Ã¤ub": 7297,
      "Ġtear": 7298,
      "Ġstrang": 7299,
      "Ġschwere": 7300,
      "endete": 7301,
      "ichteten": 7302,
      "iction": 7303,
      "ictier": 7304,
      "Ġangefangen": 7305,
      "Ġtrocken": 7306,
      "ĠKarenina": 7307,
      "Ġempfangen": 7308,
      "ĠTee": 7309,
      "Ġdoesn": 7310,
      "ashvin": 7311,
      "Ġadvent": 7312,
      "Ġstreets": 7313,
      "Ã¶tt": 7314,
      "ĠMademoiselle": 7315,
      "tending": 7316,
      "ĠgrÃ¶ÃŁte": 7317,
      "rÃ¶te": 7318,
      "Ġofficer": 7319,
      "Ġholte": 7320,
      "Ġmistress": 7321,
      "Ġbestimmte": 7322,
      "Ġabsolute": 7323,
      "ĠTodes": 7324,
      "Ġhonest": 7325,
      "bildung": 7326,
      "ĠChristian": 7327,
      "ING": 7328,
      "coat": 7329,
      "Ġcounten": 7330,
      "Ġdefend": 7331,
      "Ġschaute": 7332,
      "Meanwhile": 7333,
      "Ġsatisfied": 7334,
      "Ġbemerken": 7335,
      "ĠJustin": 7336,
      "Ġmelanch": 7337,
      "ĠGrubach": 7338,
      "Ġappearance": 7339,
      "ĠDoktor": 7340,
      "Ġstruggle": 7341,
      "Ġgloomy": 7342,
      "ĠKÃ¼che": 7343,
      "Ġdreadful": 7344,
      "Ġgathered": 7345,
      "ĠUmstÃ¤nden": 7346,
      "Ġdisturbed": 7347,
      "Ġheiraten": 7348,
      "ĠUntersuchungs": 7349,
      "Ġextrem": 7350,
      "ĠEntschluÃŁ": 7351,
      "ĠeigentÃ¼m": 7352,
      "Ġconduct": 7353,
      "irgin": 7354,
      "ĠMarshal": 7355,
      "Ohne": 7356,
      "back": 7357,
      "ľbrigens": 7358,
      "ened": 7359,
      "inet": 7360,
      "Ġsinn": 7361,
      "Ġtur": 7362,
      "Ġdish": 7363,
      "ĠdÃ¼ster": 7364,
      "Ġwed": 7365,
      "isk": 7366,
      "Ġfit": 7367,
      "Ġfate": 7368,
      "ĠgÃ¤nz": 7369,
      "Ġoper": 7370,
      "Ġcig": 7371,
      "Ã¤ck": 7372,
      "Ġpein": 7373,
      "Ġphr": 7374,
      "Ġkna": 7375,
      "alent": 7376,
      "ids": 7377,
      "achend": 7378,
      "Ġsave": 7379,
      "ĠMasch": 7380,
      "Ã¶sen": 7381,
      "ĠKreis": 7382,
      "ĠBrie": 7383,
      "ĠBisch": 7384,
      "ĠBogen": 7385,
      "ĠBaum": 7386,
      "schrei": 7387,
      "schrift": 7388,
      "ĠLam": 7389,
      "ĠLaune": 7390,
      "ĠThen": 7391,
      "ĠFrieden": 7392,
      "Ġreach": 7393,
      "Ġrechten": 7394,
      "then": 7395,
      "ĠWer": 7396,
      "ĠWetter": 7397,
      "Ġforest": 7398,
      "ĠPont": 7399,
      "ĠVÃ¶": 7400,
      "ĠVier": 7401,
      "ĠDichter": 7402,
      "Ġdoc": 7403,
      "Ġfrisch": 7404,
      "umn": 7405,
      "umer": 7406,
      "uchzen": 7407,
      "Ġspace": 7408,
      "ĠStief": 7409,
      "quette": 7410,
      "Ġabrupt": 7411,
      "abl": 7412,
      "Ġshel": 7413,
      "Ġshud": 7414,
      "anting": 7415,
      "ĠJetzt": 7416,
      "Ġnachher": 7417,
      "meich": 7418,
      "ĠConstantine": 7419,
      "oused": 7420,
      "Ġconvin": 7421,
      "Ġorg": 7422,
      "zukommen": 7423,
      "irektor": 7424,
      "Ġentlang": 7425,
      "onds": 7426,
      "Ġpron": 7427,
      "While": 7428,
      "aced": 7429,
      "Ġsmoo": 7430,
      "Ġgreater": 7431,
      "ĠVorstellung": 7432,
      "Ġnevertheless": 7433,
      "Ġspecial": 7434,
      "Ġsolch": 7435,
      "Ġgleichsam": 7436,
      "ordnung": 7437,
      "aÃŁte": 7438,
      "Ã¼tter": 7439,
      "Ġscene": 7440,
      "Ġimpat": 7441,
      "Ġknee": 7442,
      "afja": 7443,
      "drÃ¼ck": 7444,
      "Ġmarble": 7445,
      "ĠInsel": 7446,
      "Ġirgendwel": 7447,
      "ounted": 7448,
      "Aller": 7449,
      "Ġwants": 7450,
      "ĠSchlÃ¤": 7451,
      "ĠblaÃŁ": 7452,
      "Ġwheels": 7453,
      "Ġexcite": 7454,
      "Beim": 7455,
      "Ġsuffic": 7456,
      "Ġhumili": 7457,
      "Ã¼nden": 7458,
      "board": 7459,
      "ĠPrinzess": 7460,
      "ĠMarch": 7461,
      "ĠKamer": 7462,
      "Ġclosely": 7463,
      "ĠbewuÃŁt": 7464,
      "ĠgewÃ¶hnt": 7465,
      "ĠVolks": 7466,
      "Ġseitdem": 7467,
      "Ġcondem": 7468,
      "Ġconditions": 7469,
      "Ġbusinessman": 7470,
      "Ġbadly": 7471,
      "ĠEltern": 7472,
      "ĠKnien": 7473,
      "ĠHimmels": 7474,
      "Ġdeeply": 7475,
      "Ġexpecting": 7476,
      "ĠGalgen": 7477,
      "Ġformerly": 7478,
      "ĠLeib": 7479,
      "Ġinquired": 7480,
      "Ġgazing": 7481,
      "diener": 7482,
      "Ġintention": 7483,
      "Ġanxious": 7484,
      "ĠOlivier": 7485,
      "ĠBeifall": 7486,
      "zustellen": 7487,
      "ĠMahiette": 7488,
      "ĠJahrhunderte": 7489,
      "Madame": 7490,
      "ĠDmitri": 7491,
      "Ġinvoluntarily": 7492,
      "Ġfurniture": 7493,
      "ĠHÃ¤lfte": 7494,
      "Ġerstaunt": 7495,
      "ĠTeppich": 7496,
      "ĠTiefe": 7497,
      "ĠErstaunen": 7498,
      "Ġadvantage": 7499,
      "ĠGattin": 7500,
      "ĠunaufhÃ¶r": 7501,
      "ĠzwÃ¶lf": 7502,
      "Ġunexpected": 7503,
      "Ġshudder": 7504,
      ".âĪĴâĪĴ": 7505,
      "AR": 7506,
      "AT": 7507,
      "Ag": 7508,
      "aur": 7509,
      "bahn": 7510,
      "gliche": 7511,
      "hÃ¶rt": 7512,
      "ials": 7513,
      "kur": 7514,
      "met": 7515,
      "mos": 7516,
      "oor": 7517,
      "ohlen": 7518,
      "ressed": 7519,
      "zur": 7520,
      "zahl": 7521,
      "Ãľbrigens": 7522,
      "chtes": 7523,
      "Ġaction": 7524,
      "Ġsy": 7525,
      "Ġsides": 7526,
      "ĠdrÃ¤n": 7527,
      "Ġming": 7528,
      "Ġmur": 7529,
      "Ġbrow": 7530,
      "reit": 7531,
      "ĠgrÃ¤": 7532,
      "Ġlines": 7533,
      "Ġvain": 7534,
      "Ġvex": 7535,
      "Ġcaut": 7536,
      "Ġcathedral": 7537,
      "Ã¤hne": 7538,
      "Ġpaid": 7539,
      "unehmen": 7540,
      "Ġkre": 7541,
      "Ġzuvor": 7542,
      "imal": 7543,
      "ĠGlauben": 7544,
      "rotz": 7545,
      "Ġhers": 7546,
      "ĠHung": 7547,
      "schr": 7548,
      "ĠLord": 7549,
      "Ġreck": 7550,
      "Ġyouth": 7551,
      "this": 7552,
      "Ġren": 7553,
      "Ġrang": 7554,
      "Ġschrei": 7555,
      "ĠEhre": 7556,
      "ĠallmÃ¤hlich": 7557,
      "ionen": 7558,
      "Ġmead": 7559,
      "denten": 7560,
      "iles": 7561,
      "ĠDing": 7562,
      "ĠScham": 7563,
      "Ġimm": 7564,
      "aya": 7565,
      "ums": 7566,
      "merzen": 7567,
      "Ġweary": 7568,
      "Ġabroad": 7569,
      "Ġums": 7570,
      "--'": 7571,
      "angel": 7572,
      "ienten": 7573,
      "ĠfÃ¼rchten": 7574,
      "Ġconqu": 7575,
      "ĠVerwand": 7576,
      "stell": 7577,
      "ĠOudarde": 7578,
      "Ġyours": 7579,
      "inkt": 7580,
      "wohn": 7581,
      "Ġsomeone": 7582,
      "atha": 7583,
      "Ġgetr": 7584,
      "Ġgras": 7585,
      "Ġdrunk": 7586,
      "Ġembra": 7587,
      "ĠmÃ¶chten": 7588,
      "Ġperceived": 7589,
      "Ġvoller": 7590,
      "ĠBlicken": 7591,
      "they": 7592,
      "ĠStimmen": 7593,
      "ĠEntfern": 7594,
      "ĠTÃ¼rhÃ¼ter": 7595,
      "Ġpersu": 7596,
      "Ġaccept": 7597,
      "hafter": 7598,
      "underung": 7599,
      "Ġsecure": 7600,
      "ĠFuÃŁe": 7601,
      "ĠFehler": 7602,
      "ashed": 7603,
      "ĠPhilosop": 7604,
      "Ġschweren": 7605,
      "hÃ¶rte": 7606,
      "willen": 7607,
      "Ġdirect": 7608,
      "ĠTristan": 7609,
      "Ġsorrow": 7610,
      "trat": 7611,
      "Ġpract": 7612,
      "Ġawful": 7613,
      "ĠStudenten": 7614,
      "ĠmÃ¼ÃŁte": 7615,
      "wirr": 7616,
      "Ġgelegen": 7617,
      "ĠBegle": 7618,
      "Ġspirits": 7619,
      "Ġplaying": 7620,
      "ĠGelÃ¤chter": 7621,
      "Ġemplo": 7622,
      "Ġerreichen": 7623,
      "Ã¶hnen": 7624,
      "Ġhonour": 7625,
      "Ġvisitors": 7626,
      "ĠGalerie": 7627,
      "ĠSchnee": 7628,
      "Ġenclos": 7629,
      "Ġportra": 7630,
      "ĠAgafja": 7631,
      "ĠHalb": 7632,
      "Ġjunger": 7633,
      "ifty": 7634,
      "Ġtiefen": 7635,
      "Ġfirmly": 7636,
      "Ġcompletely": 7637,
      "Ġsighed": 7638,
      "ĠHinsicht": 7639,
      "ĠFerne": 7640,
      "Ġneighbour": 7641,
      "Ġlustig": 7642,
      "stuhl": 7643,
      "Ġfancy": 7644,
      "ĠGlocken": 7645,
      "ĠfrÃ¶hlich": 7646,
      "Ġentweder": 7647,
      "Ġmiserable": 7648,
      "Ġsolemn": 7649,
      "ĠMikhaylovna": 7650,
      "ĠGÃ¤ste": 7651,
      "Ġdurfte": 7652,
      "ĠBemerkung": 7653,
      "ĠHemd": 7654,
      "ĠÃ¼brig": 7655,
      "Ġlifted": 7656,
      "Ġroubles": 7657,
      "Ġyellow": 7658,
      "marschall": 7659,
      "Ġexcell": 7660,
      "ĠSawyer": 7661,
      "Ġcountenance": 7662,
      "ĠPrinzessin": 7663,
      "Can": 7664,
      "Even": 7665,
      "Komm": 7666,
      "Ue": 7667,
      "bly": 7668,
      "bot": 7669,
      "bart": 7670,
      "dy": 7671,
      "fÃ¤ng": 7672,
      "glichen": 7673,
      "hil": 7674,
      "ike": 7675,
      "mÃ¤cht": 7676,
      "pel": 7677,
      "vet": 7678,
      "vere": 7679,
      "erved": 7680,
      "chair": 7681,
      "Ġsumm": 7682,
      "Ġdying": 7683,
      "Ġwoo": 7684,
      "ĠhÃ¤lt": 7685,
      "Ġmood": 7686,
      "Ġmarsh": 7687,
      "itated": 7688,
      "Ġbos": 7689,
      "any": 7690,
      "Ġfes": 7691,
      "Ġgrauen": 7692,
      "eds": 7693,
      "Ġinj": 7694,
      "Ġlamp": 7695,
      "stunde": 7696,
      "Ã¤her": 7697,
      "Ġbegeg": 7698,
      "Ġbequem": 7699,
      "ĠAcht": 7700,
      "ĠAlle": 7701,
      "alte": 7702,
      "Ġnoble": 7703,
      "achs": 7704,
      "ĠMor": 7705,
      "ĠMarm": 7706,
      "Ġherbei": 7707,
      "ĠKu": 7708,
      "ĠBel": 7709,
      "ĠBill": 7710,
      "utation": 7711,
      "ĠHis": 7712,
      "ĠHor": 7713,
      "Ġstones": 7714,
      "ĠFig": 7715,
      "ĠFeld": 7716,
      "Ġgeheimnis": 7717,
      "ĠWahl": 7718,
      "Ġwithd": 7719,
      "esses": 7720,
      "ĠEhr": 7721,
      "Ġunf": 7722,
      "raw": 7723,
      "race": 7724,
      "rated": 7725,
      "Ġasc": 7726,
      "ĠRobert": 7727,
      "ĠDon": 7728,
      "ĠZig": 7729,
      "ĠZÃ¼ge": 7730,
      "hlten": 7731,
      "Ġlegen": 7732,
      "Ġleant": 7733,
      "ulf": 7734,
      "ĠÃ¼bert": 7735,
      "herz": 7736,
      "Ġdeterm": 7737,
      "ĠAnk": 7738,
      "ĠAntl": 7739,
      "weit": 7740,
      "Ġchin": 7741,
      "riet": 7742,
      "anges": 7743,
      "fellos": 7744,
      "Ġarriv": 7745,
      "Ġrob": 7746,
      "ĠGeorg": 7747,
      "Ġdaraus": 7748,
      "rÃ¤glich": 7749,
      "Ġgoes": 7750,
      "Ã¤tzen": 7751,
      "Ġbrill": 7752,
      "Ġfee": 7753,
      "uded": 7754,
      "Ġprocess": 7755,
      "acy": 7756,
      "brachte": 7757,
      "ĠgrÃ¼": 7758,
      "Ġflat": 7759,
      "ĠgenÃ¼": 7760,
      "ivid": 7761,
      "Ã¼nf": 7762,
      "Ġresist": 7763,
      "pens": 7764,
      "ĠgehÃ¶rte": 7765,
      "Ġbedroom": 7766,
      "Ġversuchen": 7767,
      "Ġthrust": 7768,
      "Ã¼sse": 7769,
      "ĠEmmas": 7770,
      "iza": 7771,
      "ĠChÃ¢te": 7772,
      "Ġtrave": 7773,
      "Ġrooms": 7774,
      "Ġimpro": 7775,
      "ĠAlte": 7776,
      "Ġgeschw": 7777,
      "ĠHeir": 7778,
      "rÃ¼m": 7779,
      "Ġcarpet": 7780,
      "Ġverlor": 7781,
      "stÃ¤nde": 7782,
      "ĠvergaÃŁ": 7783,
      "kaja": 7784,
      "Ġelb": 7785,
      "Ġelder": 7786,
      "ĠPariser": 7787,
      "Ġcloak": 7788,
      "Ã¼hle": 7789,
      "geschlagen": 7790,
      "gleichen": 7791,
      "Ġruhigen": 7792,
      "Ġjoined": 7793,
      "Ġfolgenden": 7794,
      "Ġfriendly": 7795,
      "Ġempfunden": 7796,
      "Ġbusy": 7797,
      "ĠKammer": 7798,
      "ĠBilder": 7799,
      "Ġsimilar": 7800,
      "Ġfielen": 7801,
      "Ġmagn": 7802,
      "rÃ¤nkt": 7803,
      "Ġservants": 7804,
      "Ã¤hnen": 7805,
      "ĠgewÃ¶hnlichen": 7806,
      "Ġwatching": 7807,
      "ĠGebÃ¤ude": 7808,
      "ĠwÃ¼nsche": 7809,
      "Ġdespite": 7810,
      "ĠXV": 7811,
      "Ġdressing": 7812,
      "ĠerzÃ¤hlt": 7813,
      "Ġsingular": 7814,
      "Ġraising": 7815,
      "ĠYashvin": 7816,
      "Ġarranged": 7817,
      "Ġtemper": 7818,
      "Ġrapidly": 7819,
      "Ġbeobachtete": 7820,
      "ĠBÃ¤ume": 7821,
      "Ġburning": 7822,
      "Ġberuhigen": 7823,
      "ĠWillen": 7824,
      "Darauf": 7825,
      "ĠWhat": 7826,
      "Ġsanft": 7827,
      "Ġaugenscheinlich": 7828,
      "Ġescaped": 7829,
      "Ġaccompl": 7830,
      "Ġsuspic": 7831,
      "Everything": 7832,
      "gÃ¼ltig": 7833,
      "Ġlebhaft": 7834,
      "Ġdiscovered": 7835,
      "Ġextraord": 7836,
      "Ġgaze": 7837,
      "Ġbonnet": 7838,
      "Ġsmoke": 7839,
      "Ġdegree": 7840,
      "ĠAlexandrovich": 7841,
      "AuÃŁerdem": 7842,
      "wurf": 7843,
      "ĠWeslowski": 7844,
      "ĠZÃ¤rtlichkeit": 7845,
      "undzwanzig": 7846,
      "Ġlofty": 7847,
      "\"'": 7848,
      "Bald": 7849,
      "During": 7850,
      "Sobald": 7851,
      "Weil": 7852,
      "aved": 7853,
      "iant": 7854,
      "kers": 7855,
      "licht": 7856,
      "place": 7857,
      "rer": 7858,
      "uv": 7859,
      "val": 7860,
      "inke": 7861,
      "Ġwise": 7862,
      "Ġwichtig": 7863,
      "Ġwretched": 7864,
      "Ġweshalb": 7865,
      "Ġholl": 7866,
      "reichen": 7867,
      "arse": 7868,
      "Ġfood": 7869,
      "Ġfish": 7870,
      "Ġlernen": 7871,
      "Ġlighted": 7872,
      "Ġletzter": 7873,
      "Ã¼te": 7874,
      "Ġvel": 7875,
      "Ġvol": 7876,
      "Ġveil": 7877,
      "Ġcro": 7878,
      "Ġceil": 7879,
      "stÃ¼r": 7880,
      "ĠSter": 7881,
      "Ġpan": 7882,
      "Ġpure": 7883,
      "Ġbeherr": 7884,
      "heil": 7885,
      "unch": 7886,
      "ĠkÃ¤m": 7887,
      "Ġsand": 7888,
      "Ġsafe": 7889,
      "Ġsaved": 7890,
      "Ġwhist": 7891,
      "ĠMas": 7892,
      "Ġdazz": 7893,
      "ĠBlock": 7894,
      "ĠFabrik": 7895,
      "ĠWein": 7896,
      "ĠWÃ¼r": 7897,
      "eihung": 7898,
      "Ġras": 7899,
      "Ġschob": 7900,
      "Ġalive": 7901,
      "endem": 7902,
      "Ġunab": 7903,
      "Ġuniform": 7904,
      "anne": 7905,
      "ĠRuÃŁ": 7906,
      "ĠRuh": 7907,
      "ilty": 7908,
      "ĠDenn": 7909,
      "bell": 7910,
      "umped": 7911,
      "icip": 7912,
      "Ġleiser": 7913,
      "ĠStroh": 7914,
      "Ġwechsel": 7915,
      "abel": 7916,
      "Ġshowing": 7917,
      "ĠâĢĵ,": 7918,
      "Ġdefinite": 7919,
      "ĠAnkunft": 7920,
      "ĠJasch": 7921,
      "ĠLehrer": 7922,
      "ĠhinÃ¼ber": 7923,
      "ĠCour": 7924,
      "Ġorig": 7925,
      "ĠVerÃ¤nder": 7926,
      "ĠquÃ¤l": 7927,
      "ĠGev": 7928,
      "ĠGeistes": 7929,
      "Ġfailed": 7930,
      "Thank": 7931,
      "ĠbrÃ¼": 7932,
      "acke": 7933,
      "samen": 7934,
      "Ġhandeln": 7935,
      "Ġpressing": 7936,
      "Ġanybody": 7937,
      "ĠkÃ¶nig": 7938,
      "Ġunseren": 7939,
      "bares": 7940,
      "Ġplat": 7941,
      "ĠRech": 7942,
      "Ġdism": 7943,
      "ĠGrade": 7944,
      "Ġeverywhere": 7945,
      "Ġstillen": 7946,
      "Ġrepro": 7947,
      "adyev": 7948,
      "Ġthrong": 7949,
      "Ġbreat": 7950,
      "ĠSpiegel": 7951,
      "Ġscience": 7952,
      "ĠZimmers": 7953,
      "Ġgelangen": 7954,
      "Ġgeliebt": 7955,
      "Ġverlieren": 7956,
      "Ġzusammenge": 7957,
      "Wieder": 7958,
      "Any": 7959,
      "ĠLiebes": 7960,
      "Einige": 7961,
      "ĠAbreise": 7962,
      "Ġlangweil": 7963,
      "ĠGeschÃ¶pf": 7964,
      "Ġvoices": 7965,
      "Ġtelling": 7966,
      "hofe": 7967,
      "Ġhohe": 7968,
      "Ġhoffe": 7969,
      "Ġfinding": 7970,
      "Ġgesture": 7971,
      "Ġgestorben": 7972,
      "Ġeinziges": 7973,
      "ĠArkadyev": 7974,
      "haben": 7975,
      "Ġguilty": 7976,
      "Ġattitude": 7977,
      "ĠKindes": 7978,
      "ĠberÃ¼h": 7979,
      "ĠNachricht": 7980,
      "Ġadvanced": 7981,
      "ĠEngel": 7982,
      "Ġskin": 7983,
      "Ġsorts": 7984,
      "Ġkeeping": 7985,
      "Ġcompre": 7986,
      "Ġstrenge": 7987,
      "rÃ¤nk": 7988,
      "arrte": 7989,
      "Ġbedeckt": 7990,
      "Ġartist": 7991,
      "ĠDecke": 7992,
      "Ġerinnern": 7993,
      "ĠEmpfindungen": 7994,
      "Ġcircle": 7995,
      "Ġgeglaubt": 7996,
      "Ġbuy": 7997,
      "Ġziehen": 7998,
      "Ã¤uschung": 7999,
      "Ġpatient": 8000,
      "Still": 8001,
      "Ġpromise": 8002,
      "III": 8003,
      "ĠhÃ¶chst": 8004,
      "Ġallgemein": 8005,
      "ĠAgatha": 8006,
      "Ġroofs": 8007,
      "Ġdunkle": 8008,
      "Ġertragen": 8009,
      "ĠmÃ¤chtig": 8010,
      "Ġcomfortable": 8011,
      "Ġrecognized": 8012,
      "ustomed": 8013,
      "Ġfifteen": 8014,
      "Ġmystery": 8015,
      "Ġproduced": 8016,
      "ĠTitorelli": 8017,
      "Ġperfectly": 8018,
      "Indessen": 8019,
      "ĠBalken": 8020,
      "erechtigkeit": 8021,
      "ĠWissenschaft": 8022,
      "ĠPierre": 8023,
      "Ġmuttered": 8024,
      "ĠSwijaschski": 8025,
      "ĠKaffee": 8026,
      "ĠGewohnheit": 8027,
      "ĠSchildk": 8028,
      "Ġhigher": 8029,
      "Ġinnocent": 8030,
      "Ġopportunity": 8031,
      "ĠunaufhÃ¶rlich": 8032,
      "EN": 8033,
      "Ex": 8034,
      "Frau": 8035,
      "IT": 8036,
      "Kann": 8037,
      "Tell": 8038,
      "blich": 8039,
      "dre": 8040,
      "hie": 8041,
      "kos": 8042,
      "kleid": 8043,
      "prech": 8044,
      "richtig": 8045,
      "uished": 8046,
      "wed": 8047,
      "with": 8048,
      "wenn": 8049,
      "zing": 8050,
      "erc": 8051,
      "eral": 8052,
      "Ġack": 8053,
      "Ġtree": 8054,
      "Ġdining": 8055,
      "Ġwine": 8056,
      "ĠhÃ¤ngen": 8057,
      "Ġhielten": 8058,
      "teile": 8059,
      "teuer": 8060,
      "Ġmild": 8061,
      "Ġbold": 8062,
      "asing": 8063,
      "Ã¼hrung": 8064,
      "Ġven": 8065,
      "Ġcaus": 8066,
      "Ġid": 8067,
      "stÃ¼cke": 8068,
      "ĠSil": 8069,
      "Ã¤me": 8070,
      "legung": 8071,
      "Ġere": 8072,
      "Ġerlau": 8073,
      "irst": 8074,
      "Ġheight": 8075,
      "ĠheiÃŁen": 8076,
      "idel": 8077,
      "ichtigen": 8078,
      "ĠGas": 8079,
      "ĠGry": 8080,
      "berry": 8081,
      "ĠMunde": 8082,
      "Ã¶ste": 8083,
      "Ġherauf": 8084,
      "ĠKar": 8085,
      "ĠKom": 8086,
      "ĠKinde": 8087,
      "Ġdared": 8088,
      "ĠHier": 8089,
      "ĠHÃ¼gel": 8090,
      "schten": 8091,
      "Ġisn": 8092,
      "ĠLaska": 8093,
      "ĠTier": 8094,
      "Ġstum": 8095,
      "Ġstorm": 8096,
      "Ġgeheim": 8097,
      "ĠWicht": 8098,
      "ĠWert": 8099,
      "Ġrib": 8100,
      "ĠEis": 8101,
      "ĠungewÃ¶hn": 8102,
      "raf": 8103,
      "ĠPer": 8104,
      "ilung": 8105,
      "ĠDuch": 8106,
      "ftiger": 8107,
      "Ġneuer": 8108,
      "ersucht": 8109,
      "Ġleiden": 8110,
      "Ġleichter": 8111,
      "ĠStaub": 8112,
      "Ġweeks": 8113,
      "undheit": 8114,
      "abei": 8115,
      "Ġshirt": 8116,
      "Ġshoes": 8117,
      "Ġauszus": 8118,
      "Ġumf": 8119,
      "ĠJugend": 8120,
      "rified": 8121,
      "fect": 8122,
      "Ġupstairs": 8123,
      "ruhe": 8124,
      "Ã¶nte": 8125,
      "Ġwilling": 8126,
      "Ġcontent": 8127,
      "zugehen": 8128,
      "ausdruck": 8129,
      "ĠVerteid": 8130,
      "Ġbeginnen": 8131,
      "Ġwozu": 8132,
      "Ġque": 8133,
      "Ġgesetzt": 8134,
      "Ġproud": 8135,
      "Ġunterhalten": 8136,
      "Ġenv": 8137,
      "Ġdennoch": 8138,
      "inking": 8139,
      "ischem": 8140,
      "Ġproper": 8141,
      "Ġadd": 8142,
      "ĠThatcher": 8143,
      "Ġflesh": 8144,
      "Ġotherwise": 8145,
      "gerufen": 8146,
      "penst": 8147,
      "Ġreport": 8148,
      "Ġversucht": 8149,
      "Ã¼ss": 8150,
      "laufen": 8151,
      "Ġfreed": 8152,
      "Ġfreue": 8153,
      "Ġgeschm": 8154,
      "Ã¤uschen": 8155,
      "Ġteach": 8156,
      "Ġverschlossen": 8157,
      "retch": 8158,
      "Ġhorrible": 8159,
      "Ġsilk": 8160,
      "Ġerscheinen": 8161,
      "Ġrecl": 8162,
      "onstr": 8163,
      "scheiden": 8164,
      "ĠHaut": 8165,
      "Ġdistin": 8166,
      "which": 8167,
      "uldig": 8168,
      "Ġfindet": 8169,
      "ĠProkur": 8170,
      "Ġclever": 8171,
      "ĠlÃ¤cheln": 8172,
      "ĠSchlag": 8173,
      "ĠSchluchzen": 8174,
      "elsmarschall": 8175,
      "ĠDiese": 8176,
      "Ġearn": 8177,
      "Ġwishes": 8178,
      "Ġschlechte": 8179,
      "Ġsentence": 8180,
      "ĠFuÃŁboden": 8181,
      "Ġsupper": 8182,
      "Ġsuffered": 8183,
      "ĠWeiber": 8184,
      "Ġassumed": 8185,
      "Ġillness": 8186,
      "ivered": 8187,
      "Ġflog": 8188,
      "Ã¶lker": 8189,
      "uchteten": 8190,
      "Ġerhielt": 8191,
      "Ġbedeckte": 8192,
      "ĠUrteil": 8193,
      "Ġplayed": 8194,
      "Ġcompanion": 8195,
      "ĠhÃ¼bsche": 8196,
      "Ġdrive": 8197,
      "Ġpolit": 8198,
      "Ġwondered": 8199,
      "Ġangenommen": 8200,
      "ĠMonate": 8201,
      "Ġrapid": 8202,
      "Ġefforts": 8203,
      "hundert": 8204,
      "Ġmenschliche": 8205,
      "Ġbeleid": 8206,
      "ĠIvanich": 8207,
      "mÃ¼d": 8208,
      "Ġproceeded": 8209,
      "ĠMiller": 8210,
      "ĠFolge": 8211,
      "ĠGroÃŁ": 8212,
      "ĠVerlangen": 8213,
      "Ġneighb": 8214,
      "Ġconcerned": 8215,
      "Ġsharp": 8216,
      "Ġverheiratet": 8217,
      "Ġliberty": 8218,
      "Ġfarming": 8219,
      "Ġprovost": 8220,
      "Ġintervals": 8221,
      "Ġsucceeded": 8222,
      "Ġdelicate": 8223,
      "ĠMichailowna": 8224,
      "curator": 8225,
      "Ġoccurred": 8226,
      "ĠColon": 8227,
      "Ġlanguage": 8228,
      "Ġlikely": 8229,
      "ĠSunday": 8230,
      "Ġabsorbed": 8231,
      "ĠHÃ´tel": 8232,
      "ĠEntzÃ¼cken": 8233,
      "ĠKloster": 8234,
      "ĠEntfernung": 8235,
      "Ġarrival": 8236,
      "Ġextraordinary": 8237,
      "Ġceiling": 8238,
      "Ġacknow": 8239,
      "Mir": 8240,
      "MÃ¶": 8241,
      "Oder": 8242,
      "Trotz": 8243,
      "Would": 8244,
      "_,": 8245,
      "gilt": 8246,
      "iber": 8247,
      "lad": 8248,
      "mission": 8249,
      "oint": 8250,
      "rissen": 8251,
      "sed": 8252,
      "wes": 8253,
      "wort": 8254,
      "zum": 8255,
      "zunehmen": 8256,
      "Ãª": 8257,
      "Ġign": 8258,
      "inchen": 8259,
      "Ġaid": 8260,
      "Ġsinc": 8261,
      "iebten": 8262,
      "ittern": 8263,
      "ĠbloÃŁ": 8264,
      "Ġbending": 8265,
      "isa": 8266,
      "reiten": 8267,
      "Ġnickte": 8268,
      "Ġfo": 8269,
      "Ġfifty": 8270,
      "Ġgame": 8271,
      "Ġgrief": 8272,
      "Ġgutes": 8273,
      "atic": 8274,
      "Ġvort": 8275,
      "Ġvast": 8276,
      "Ġcases": 8277,
      "streich": 8278,
      "Ã¤ne": 8279,
      "ĠzÃ¶": 8280,
      "Ġpin": 8281,
      "Ġbewegen": 8282,
      "Ġerb": 8283,
      "ettet": 8284,
      "aust": 8285,
      "Ġkrie": 8286,
      "ĠkÃ¶rper": 8287,
      "Ġzuge": 8288,
      "Ġzuckte": 8289,
      "iments": 8290,
      "ĠGast": 8291,
      "ĠGanze": 8292,
      "ropfen": 8293,
      "Ã¶m": 8294,
      "utzen": 8295,
      "ĠHall": 8296,
      "ĠHaÃŁ": 8297,
      "seher": 8298,
      "ames": 8299,
      "ĠLauf": 8300,
      "ĠLied": 8301,
      "ĠLock": 8302,
      "Ġveran": 8303,
      "Ġverme": 8304,
      "Ġverlegen": 8305,
      "Ġrela": 8306,
      "Ġreichen": 8307,
      "Ġrejo": 8308,
      "Ġgezogen": 8309,
      "ĠWÃ¤r": 8310,
      "ĠWangen": 8311,
      "Ġrie": 8312,
      "ĠriÃŁ": 8313,
      "Ġraise": 8314,
      "Ġschmal": 8315,
      "Ġschickte": 8316,
      "Ġaufrecht": 8317,
      "Ġaufgestanden": 8318,
      "ĠPreis": 8319,
      "ĠPotter": 8320,
      "illing": 8321,
      "Ġattempt": 8322,
      "ĠRu": 8323,
      "ĠDam": 8324,
      "usted": 8325,
      "ĠSchm": 8326,
      "ĠSchiff": 8327,
      "ppel": 8328,
      "umpen": 8329,
      "Ġdesper": 8330,
      "Ġspend": 8331,
      "Ġweather": 8332,
      "cheiden": 8333,
      "ĠAnschau": 8334,
      "Ġdiesmal": 8335,
      "Ġexpressed": 8336,
      "hnung": 8337,
      "Ġarbeit": 8338,
      "zeugen": 8339,
      "ĠVerkehr": 8340,
      "artigen": 8341,
      "Ġliebens": 8342,
      "Ġroten": 8343,
      "vented": 8344,
      "ĠglÃ¼h": 8345,
      "Ã¤tte": 8346,
      "ĠGesundheit": 8347,
      "Ġhandelt": 8348,
      "Ġpride": 8349,
      "Ġloving": 8350,
      "Ġengl": 8351,
      "Ġbefindet": 8352,
      "Ġselber": 8353,
      "ĠfÃ¼hlen": 8354,
      "Ġgeriet": 8355,
      "brÃ¼cke": 8356,
      "ieso": 8357,
      "ĠThÃ¼re": 8358,
      "ĠUnbe": 8359,
      "gerin": 8360,
      "estern": 8361,
      "Ġspeech": 8362,
      "Ġwohlbe": 8363,
      "Ġperform": 8364,
      "Ġbreiten": 8365,
      "ĠWechsel": 8366,
      "Ã¤nglich": 8367,
      "Ġgeschickt": 8368,
      "Ġvollen": 8369,
      "Eines": 8370,
      "Ġrecoll": 8371,
      "Ġslight": 8372,
      "licherweise": 8373,
      "Ġirgendwo": 8374,
      "Ġnahmen": 8375,
      "ĠLandwirtschaft": 8376,
      "ĠnatÃ¼r": 8377,
      "illef": 8378,
      "ĠThey": 8379,
      "haber": 8380,
      "ammt": 8381,
      "reckt": 8382,
      "ĠAlexandrowitschs": 8383,
      "ĠNeu": 8384,
      "Ġcapital": 8385,
      "Ġpainted": 8386,
      "Ġhoped": 8387,
      "Ġdrop": 8388,
      "ĠBruders": 8389,
      "Ġcloser": 8390,
      "Ġinstinct": 8391,
      "Ġbleibt": 8392,
      "ĠSchritten": 8393,
      "Ġapproach": 8394,
      "ĠMinute": 8395,
      "Ġparents": 8396,
      "Ġcoldly": 8397,
      "Ġladder": 8398,
      "Alas": 8399,
      "Ġgekleidet": 8400,
      "Ġdevel": 8401,
      "ĠgrÃ¶ÃŁ": 8402,
      "Ġindep": 8403,
      "Ġamongst": 8404,
      "Ġbestimmten": 8405,
      "Ġinteresting": 8406,
      "Ġdriven": 8407,
      "ĠFamilien": 8408,
      "Ġsuperior": 8409,
      "Ġpolic": 8410,
      "ziehung": 8411,
      "ĠItaly": 8412,
      "sinnig": 8413,
      "Ġflew": 8414,
      "Ġridicul": 8415,
      "Ġvagab": 8416,
      "Ġzitterte": 8417,
      "ĠhÃ¶chsten": 8418,
      "Sehr": 8419,
      "Ġbeobachten": 8420,
      "Ġspielte": 8421,
      "fangs": 8422,
      "Ġprofound": 8423,
      "ĠLeibe": 8424,
      "Ġbewegte": 8425,
      "ĠSchlafzimmer": 8426,
      "ĠTurtle": 8427,
      "Ġbelonged": 8428,
      "Ġengaged": 8429,
      "Ġtiefe": 8430,
      "Ġsoftly": 8431,
      "ĠstÃ¼rzte": 8432,
      "Ġfields": 8433,
      "Ġaddressing": 8434,
      "Ġmisfort": 8435,
      "Ã¼geln": 8436,
      "Ġmentioned": 8437,
      "ĠhÃ¤ufig": 8438,
      "Ġrecalled": 8439,
      "Ġindifferent": 8440,
      "ĠGesichtsausdruck": 8441,
      "Ġpackte": 8442,
      "ĠbemÃ¼hte": 8443,
      "ĠTÃ¶chter": 8444,
      "ĠHenker": 8445,
      "ĠAngekl": 8446,
      "ĠSchwierigkeiten": 8447,
      "cription": 8448,
      "ĠUniversitÃ¤t": 8449,
      "Ġconcealed": 8450,
      "Ġmajesty": 8451,
      "ĠBastille": 8452,
      "ĠAufgabe": 8453,
      "bleiben": 8454,
      "ĠMajestÃ¤t": 8455,
      "Ġlonely": 8456,
      "ĠReligion": 8457,
      "ĠUntersuchungsrichter": 8458,
      "ĠgÃ¤nzlich": 8459,
      "ĠVÃ¶gel": 8460,
      "Allerdings": 8461,
      "ĠRuÃŁland": 8462,
      "ĠSchildkrÃ¶te": 8463,
      "!...": 8464,
      "AD": 8465,
      "AL": 8466,
      "Bessie": 8467,
      "God": 8468,
      "Hall": 8469,
      "IS": 8470,
      "LaÃŁ": 8471,
      "Ph": 8472,
      "Pres": 8473,
      "besch": 8474,
      "com": 8475,
      "cience": 8476,
      "ete": 8477,
      "falt": 8478,
      "fuhr": 8479,
      "gungen": 8480,
      "hod": 8481,
      "jÃ¤hr": 8482,
      "las": 8483,
      "uary": 8484,
      "wider": 8485,
      "ye": 8486,
      "yl": 8487,
      "chs": 8488,
      "chief": 8489,
      "ini": 8490,
      "Ġtied": 8491,
      "Ġtorm": 8492,
      "Ġdign": 8493,
      "Ġwings": 8494,
      "ĠhÃ¼": 8495,
      "ichtete": 8496,
      "Ġmain": 8497,
      "Ġbor": 8498,
      "Ġbow": 8499,
      "Ġborn": 8500,
      "Ġbush": 8501,
      "Ġboots": 8502,
      "isc": 8503,
      "einst": 8504,
      "Ġnutz": 8505,
      "Ġgate": 8506,
      "Ġgriff": 8507,
      "ature": 8508,
      "Ġod": 8509,
      "Ġobt": 8510,
      "Ġlan": 8511,
      "eline": 8512,
      "Ġvig": 8513,
      "Ġcardinal": 8514,
      "Ġcousin": 8515,
      "ĠSorgen": 8516,
      "ĠSumpf": 8517,
      "Ġzah": 8518,
      "Ġbegeben": 8519,
      "Ġerforder": 8520,
      "unft": 8521,
      "hro": 8522,
      "cking": 8523,
      "aume": 8524,
      "Ġzuweilen": 8525,
      "Ġheap": 8526,
      "Ġheiter": 8527,
      "iders": 8528,
      "ĠGree": 8529,
      "ĠGatten": 8530,
      "ĠGutes": 8531,
      "ĠGerechtigkeit": 8532,
      "Ġanschein": 8533,
      "Ġansehen": 8534,
      "ĠMock": 8535,
      "ĠMurm": 8536,
      "Ã¶mm": 8537,
      "Ġecc": 8538,
      "ĠBou": 8539,
      "ĠBrÃ¼": 8540,
      "ĠBraut": 8541,
      "andt": 8542,
      "ĠHel": 8543,
      "seite": 8544,
      "schm": 8545,
      "schwe": 8546,
      "ĠLiv": 8547,
      "Ġvernahm": 8548,
      "Ġstol": 8549,
      "ĠFin": 8550,
      "Ġrechte": 8551,
      "Ġjetz": 8552,
      "Ġjumped": 8553,
      "Ġaufger": 8554,
      "Ġunert": 8555,
      "Ġunmittel": 8556,
      "Ġunknown": 8557,
      "verstanden": 8558,
      "Ġaspect": 8559,
      "Ġnoticing": 8560,
      "ĠVasen": 8561,
      "ĠVaters": 8562,
      "ĠVirgin": 8563,
      "ĠRÃ¶": 8564,
      "ĠRos": 8565,
      "ĠRog": 8566,
      "ĠRuf": 8567,
      "ĠRolle": 8568,
      "ĠDi": 8569,
      "ĠDr": 8570,
      "ĠSchreck": 8571,
      "ftige": 8572,
      "Ġdescri": 8573,
      "uchtete": 8574,
      "osing": 8575,
      "Ġlebend": 8576,
      "Ġabgesch": 8577,
      "seless": 8578,
      "ults": 8579,
      "Ġmanuf": 8580,
      "otte": 8581,
      "chev": 8582,
      "ĠÃ¼berlassen": 8583,
      "Ġvorzu": 8584,
      "Ġumg": 8585,
      "ĠJup": 8586,
      "Ġcher": 8587,
      "rice": 8588,
      "riften": 8589,
      "ardon": 8590,
      "feuer": 8591,
      "Ġupset": 8592,
      "zeichen": 8593,
      "ites": 8594,
      "ĠVerd": 8595,
      "Ã¶rung": 8596,
      "Ġwohnte": 8597,
      "Ġdarunter": 8598,
      "Ġentspr": 8599,
      "ĠErd": 8600,
      "ĠErzÃ¤hl": 8601,
      "Ġtrank": 8602,
      "Those": 8603,
      "erty": 8604,
      "Ġklug": 8605,
      "innung": 8606,
      "Ġsomewhere": 8607,
      "Ġgeraten": 8608,
      "Ġgetragen": 8609,
      "Ġdrang": 8610,
      "osef": 8611,
      "Ġhalte": 8612,
      "Ġhalted": 8613,
      "Ġjustice": 8614,
      "ĠSteine": 8615,
      "Ġafterno": 8616,
      "Ġwenigen": 8617,
      "Ġzweifellos": 8618,
      "Ġended": 8619,
      "ĠSpitz": 8620,
      "ĠToms": 8621,
      "ossip": 8622,
      "Ġlaufen": 8623,
      "ĠPark": 8624,
      "Ġkeinem": 8625,
      "Ġclas": 8626,
      "igned": 8627,
      "Ġgelassen": 8628,
      "dring": 8629,
      "Ġtreas": 8630,
      "Ġtreten": 8631,
      "Ġtreffen": 8632,
      "Ġreconc": 8633,
      "Ġslipped": 8634,
      "ĠgefÃ¤hr": 8635,
      "ĠGerman": 8636,
      "ĠRochesters": 8637,
      "Ġirgendein": 8638,
      "teilte": 8639,
      "ĠFranken": 8640,
      "ĠEntwick": 8641,
      "ĠTheater": 8642,
      "Ġgeworfen": 8643,
      "ĠKÃ¶nige": 8644,
      "ĠKleine": 8645,
      "ĠArkadjewna": 8646,
      "Ġmercy": 8647,
      "Ġblieben": 8648,
      "ferred": 8649,
      "Ġdepths": 8650,
      "Ġdirector": 8651,
      "Ġevil": 8652,
      "Ġtwel": 8653,
      "Ġkurze": 8654,
      "Ġcheek": 8655,
      "ĠGesprÃ¤che": 8656,
      "Ġedge": 8657,
      "Ġpersonal": 8658,
      "Ġerwarten": 8659,
      "ĠgrÃ¶ÃŁten": 8660,
      "ĠBuche": 8661,
      "Ġentschuld": 8662,
      "ĠFreundin": 8663,
      "Ġmistaken": 8664,
      "ergius": 8665,
      "Ġbesteht": 8666,
      "Ġimagination": 8667,
      "ĠÃĦhn": 8668,
      "ĠReiz": 8669,
      "work": 8670,
      "Ġpapers": 8671,
      "Ġtask": 8672,
      "Ġrefused": 8673,
      "Ġproperty": 8674,
      "Ġpowerful": 8675,
      "Ġpictures": 8676,
      "Ġmurmured": 8677,
      "Ġexamined": 8678,
      "ĠErinnerungen": 8679,
      "Ġcraw": 8680,
      "trag": 8681,
      "ĠLouvre": 8682,
      "Ġkurzem": 8683,
      "Ġdifficulties": 8684,
      "wartung": 8685,
      "ĠVerhÃ¤ltnisse": 8686,
      "Ġmovements": 8687,
      "Ġherrschte": 8688,
      "Ġexperience": 8689,
      "ĠAngelegenheiten": 8690,
      "ĠCoictier": 8691,
      "Ġstirred": 8692,
      "ĠerfÃ¼llt": 8693,
      "ĠGroÃŁen": 8694,
      "ĠSamsa": 8695,
      "Ġniedrigen": 8696,
      "ĠRussian": 8697,
      "ĠglÃ¤nzenden": 8698,
      "Ġanticip": 8699,
      "ĠIrrt": 8700,
      "ischtschew": 8701,
      "ĠHÃ¤user": 8702,
      "Ġclouds": 8703,
      "gelegt": 8704,
      "looking": 8705,
      "Ġdemanded": 8706,
      "Ġattract": 8707,
      "Ġbuilding": 8708,
      "ĠMontag": 8709,
      "ĠÃ¼berlegte": 8710,
      "Ġaccompanied": 8711,
      "ĠAltstadt": 8712,
      "ĠzunÃ¤chst": 8713,
      "atisfied": 8714,
      "Ġgradually": 8715,
      "friedigung": 8716,
      "ĠFingern": 8717,
      "ĠBriefe": 8718,
      "Ġsmooth": 8719,
      "Ġexcitement": 8720,
      "ĠDmitrijewitsch": 8721,
      "ĠGevatter": 8722,
      "ĠGryphon": 8723,
      "ĠDuchess": 8724,
      "Ġmanufact": 8725,
      "AN": 8726,
      "First": 8727,
      "Kein": 8728,
      "Konstantin": 8729,
      "Sir": 8730,
      "Sire": 8731,
      "Selbst": 8732,
      "Take": 8733,
      "bol": 8734,
      "dessen": 8735,
      "fassung": 8736,
      "gern": 8737,
      "hus": 8738,
      "kes": 8739,
      "kennt": 8740,
      "long": 8741,
      "macher": 8742,
      "ners": 8743,
      "pro": 8744,
      "pap": 8745,
      "pital": 8746,
      "wenden": 8747,
      "zÃ¼ge": 8748,
      "ĠÃ¤ndern": 8749,
      "chant": 8750,
      "Ġsme": 8751,
      "Ġtanz": 8752,
      "Ġdanke": 8753,
      "Ġthro": 8754,
      "Ġbir": 8755,
      "Ġbot": 8756,
      "Ġbail": 8757,
      "Ġblock": 8758,
      "Ġbored": 8759,
      "Ġbishop": 8760,
      "rem": 8761,
      "reig": 8762,
      "Ġupper": 8763,
      "asily": 8764,
      "arg": 8765,
      "Ġfer": 8766,
      "Ġfem": 8767,
      "Ġfassen": 8768,
      "Ġfesten": 8769,
      "ouillef": 8770,
      "Ġlar": 8771,
      "Ġlam": 8772,
      "Ġice": 8773,
      "stÃ¼ck": 8774,
      "ĠSÃ¼": 8775,
      "ĠSym": 8776,
      "ĠSerp": 8777,
      "Ã¤st": 8778,
      "leben": 8779,
      "leberry": 8780,
      "Ġbehalten": 8781,
      "Ġers": 8782,
      "ires": 8783,
      "ĠAe": 8784,
      "Ġnobody": 8785,
      "Ġnobles": 8786,
      "ĠGren": 8787,
      "ĠMahl": 8788,
      "Ã¶se": 8789,
      "Ã¶ne": 8790,
      "Ġew": 8791,
      "enting": 8792,
      "ĠBele": 8793,
      "schritt": 8794,
      "ĠLo": 8795,
      "ĠLater": 8796,
      "ĠTra": 8797,
      "Ġverbre": 8798,
      "Ġstoo": 8799,
      "Ġstick": 8800,
      "Ġstif": 8801,
      "Ġstrik": 8802,
      "ading": 8803,
      "Ġgee": 8804,
      "ĠWut": 8805,
      "eitet": 8806,
      "Ġrul": 8807,
      "Ġrace": 8808,
      "Ġruss": 8809,
      "ĠEreig": 8810,
      "Ġallzu": 8811,
      "Ġaufgere": 8812,
      "Ġunless": 8813,
      "Ġunruh": 8814,
      "Ġwieviel": 8815,
      "ĠRath": 8816,
      "ĠRaum": 8817,
      "denklich": 8818,
      "ĠDies": 8819,
      "ĠDjali": 8820,
      "ĠSchuh": 8821,
      "ĠSchloÃŁ": 8822,
      "Ġimpl": 8823,
      "Ġdesk": 8824,
      "ĠZuh": 8825,
      "Ġabsen": 8826,
      "Ġmanage": 8827,
      "Ġvorstellen": 8828,
      "Ġexerc": 8829,
      "ĠUfer": 8830,
      "raum": 8831,
      "Ġorn": 8832,
      "zusehen": 8833,
      "zeigt": 8834,
      "steigen": 8835,
      "ĠGeh": 8836,
      "ĠGegend": 8837,
      "aker": 8838,
      "Ġents": 8839,
      "Ġfail": 8840,
      "Ġbride": 8841,
      "Ġlover": 8842,
      "Ġblushed": 8843,
      "Ġbetrifft": 8844,
      "Ġklang": 8845,
      "Ġpros": 8846,
      "acity": 8847,
      "acious": 8848,
      "acles": 8849,
      "barkeit": 8850,
      "Ġplau": 8851,
      "Ġobv": 8852,
      "Ġdisgust": 8853,
      "ĠGrÃ¶ÃŁe": 8854,
      "ĠThere": 8855,
      "Ġflung": 8856,
      "Ġflatter": 8857,
      "ĠHandlungen": 8858,
      "Ġhalben": 8859,
      "Ġsollst": 8860,
      "ĠSteve": 8861,
      "obility": 8862,
      "flÃ¤": 8863,
      "Ġforty": 8864,
      "fulness": 8865,
      "Ġgehor": 8866,
      "Ġ--\"": 8867,
      "ĠChurch": 8868,
      "Ġscattered": 8869,
      "ĠPfÃ¶rt": 8870,
      "Ġwahn": 8871,
      "ĠBette": 8872,
      "Ã¤ule": 8873,
      "rett": 8874,
      "Einen": 8875,
      "Ġrecover": 8876,
      "fortun": 8877,
      "Ġcalling": 8878,
      "ĠInjun": 8879,
      "Ġirgendwie": 8880,
      "Ġwahrhaftig": 8881,
      "Ã¤mt": 8882,
      "Ġunderstanding": 8883,
      "ĠSchluÃŁ": 8884,
      "Ġhastig": 8885,
      "ĠNebel": 8886,
      "Ġdecla": 8887,
      "Ġdecision": 8888,
      "grund": 8889,
      "Ġcuri": 8890,
      "Ġentering": 8891,
      "ĠUnterschied": 8892,
      "lande": 8893,
      "ĠArbeiter": 8894,
      "Ġconfidence": 8895,
      "ĠAbends": 8896,
      "Becky": 8897,
      "ĠPhili": 8898,
      "ymn": 8899,
      "ĠGlanz": 8900,
      "Ġcrushed": 8901,
      "overn": 8902,
      "Ġactions": 8903,
      "ĠVolke": 8904,
      "Ġbetrachten": 8905,
      "Ġkingdom": 8906,
      "Ġjudgment": 8907,
      "ĠÃ¶ffnen": 8908,
      "Ġmethod": 8909,
      "Ġrepeat": 8910,
      "ĠWiesen": 8911,
      "Ġrealized": 8912,
      "Ġburied": 8913,
      "Ġstayed": 8914,
      "Ġinterests": 8915,
      "Ġcrossed": 8916,
      "Ġimagined": 8917,
      "Ġcandles": 8918,
      "Ġordinary": 8919,
      "Ġdispleas": 8920,
      "ĠItalian": 8921,
      "Ġcalmly": 8922,
      "Ġfigures": 8923,
      "Ġgeringste": 8924,
      "Ġnames": 8925,
      "ismus": 8926,
      "uously": 8927,
      "Ġwidow": 8928,
      "ĠStrick": 8929,
      "Ġcourage": 8930,
      "ĠRegier": 8931,
      "zeichnet": 8932,
      "Ġseparated": 8933,
      "Ġregarded": 8934,
      "ippoly": 8935,
      "ĠOliver": 8936,
      "Ġwandered": 8937,
      "ĠkrÃ¤ftig": 8938,
      "ĠRussia": 8939,
      "Ã§ade": 8940,
      "Ġfeind": 8941,
      "ĠGlocke": 8942,
      "ĠHerzogin": 8943,
      "Ġslee": 8944,
      "Ġindifference": 8945,
      "Ġinformation": 8946,
      "Ġknocked": 8947,
      "Ġfrequently": 8948,
      "ĠMilch": 8949,
      "ĠKaninchen": 8950,
      "Ġsympathy": 8951,
      "ĠVertrauen": 8952,
      "schlÃ¤ge": 8953,
      "ĠEifersucht": 8954,
      "Ġsombre": 8955,
      "Ġthirty": 8956,
      "Ġaugenblicklich": 8957,
      "Moreover": 8958,
      "Ġstupid": 8959,
      "ĠBeschÃ¤ftigung": 8960,
      "Sometimes": 8961,
      "Ġagreed": 8962,
      "ĠÃ¼berrascht": 8963,
      "Ġgewisser": 8964,
      "Ġreckon": 8965,
      "Ġexcellent": 8966,
      "ĠAntlitz": 8967,
      "Ġvelvet": 8968,
      "ĠJaschwin": 8969,
      "Ġplatform": 8970,
      "Ġfreedom": 8971,
      "Ġrecluse": 8972,
      "Ġpolicem": 8973,
      "ouillefou": 8974,
      "Gut": 8975,
      "Geh": 8976,
      "Hence": 8977,
      "Kommen": 8978,
      "May": 8979,
      "MiÃŁ": 8980,
      "Poor": 8981,
      "agte": 8982,
      "avern": 8983,
      "beln": 8984,
      "cel": 8985,
      "ef": 8986,
      "fel": 8987,
      "flichkeit": 8988,
      "geln": 8989,
      "hes": 8990,
      "iable": 8991,
      "kla": 8992,
      "table": 8993,
      "uk": 8994,
      "vÃ¶lker": 8995,
      "walt": 8996,
      "~,": 8997,
      "enka": 8998,
      "chan": 8999,
      "Ġsingen": 9000,
      "Ġtu": 9001,
      "Ġtale": 9002,
      "Ġdicken": 9003,
      "Ġmud": 9004,
      "Ġmult": 9005,
      "Ġmonsieur": 9006,
      "itive": 9007,
      "Ġbought": 9008,
      "Ġbrown": 9009,
      "Ġtheatre": 9010,
      "ĠnÃ¼tz": 9011,
      "arte": 9012,
      "arbei": 9013,
      "Ġgig": 9014,
      "Ġgown": 9015,
      "llbogen": 9016,
      "edem": 9017,
      "Ġcas": 9018,
      "Ġcla": 9019,
      "Ġcook": 9020,
      "Ġcough": 9021,
      "ĠSein": 9022,
      "ĠSum": 9023,
      "Ġeintreten": 9024,
      "Ġzahl": 9025,
      "lege": 9026,
      "Ġpier": 9027,
      "Ġbeat": 9028,
      "Ġbeard": 9029,
      "Ġbeast": 9030,
      "Ġbeweg": 9031,
      "Ġbearing": 9032,
      "Ġhay": 9033,
      "Ġerkannt": 9034,
      "terin": 9035,
      "Ġkennt": 9036,
      "irte": 9037,
      "ĠAN": 9038,
      "ĠAbte": 9039,
      "Â«.": 9040,
      "bers": 9041,
      "rol": 9042,
      "ĠMed": 9043,
      "ĠMauern": 9044,
      "Ġsofa": 9045,
      "Ġsociety": 9046,
      "Ġherbe": 9047,
      "gehe": 9048,
      "ĠKon": 9049,
      "ĠKragen": 9050,
      "ĠKÃ¶pfe": 9051,
      "ĠBand": 9052,
      "ĠBart": 9053,
      "lichten": 9054,
      "schieden": 9055,
      "Ġisland": 9056,
      "Ġonto": 9057,
      "ĠLÃ¤nge": 9058,
      "ĠTuch": 9059,
      "ĠverÃ¤cht": 9060,
      "ĠFeder": 9061,
      "ĠFalten": 9062,
      "than": 9063,
      "ĠWinde": 9064,
      "Ġries": 9065,
      "Ġschimmer": 9066,
      "ĠEllbogen": 9067,
      "Ġjob": 9068,
      "Ã¼rzt": 9069,
      "dert": 9070,
      "ĠVen": 9071,
      "ĠReit": 9072,
      "denly": 9073,
      "beug": 9074,
      "ĠSchutz": 9075,
      "ĠSchrift": 9076,
      "Ġframe": 9077,
      "ĠZunge": 9078,
      "icle": 9079,
      "hless": 9080,
      "Ġleeren": 9081,
      "Ġleichten": 9082,
      "ĠspÃ¼r": 9083,
      "ĠStolz": 9084,
      "quis": 9085,
      "Ġabsch": 9086,
      "Ġmans": 9087,
      "Ġmanaged": 9088,
      "ernt": 9089,
      "Ġvorz": 9090,
      "Ġlift": 9091,
      "ennung": 9092,
      "Ġexternal": 9093,
      "Ġ\"'": 9094,
      "Ġnochmals": 9095,
      "ĠLehn": 9096,
      "Ġgewendet": 9097,
      "ĠVerlegenheit": 9098,
      "Ã¶rer": 9099,
      "ĠErwartung": 9100,
      "Ġcomb": 9101,
      "ilette": 9102,
      "together": 9103,
      "Ġblow": 9104,
      "Ġanyway": 9105,
      "Ġbesitzen": 9106,
      "Ġbefanden": 9107,
      "Ġknowledge": 9108,
      "uddenly": 9109,
      "werden": 9110,
      "loser": 9111,
      "Ġunsern": 9112,
      "Ġplough": 9113,
      "ĠplÃ¶tz": 9114,
      "Ġadop": 9115,
      "Ġadmit": 9116,
      "ĠReims": 9117,
      "Ġdisapp": 9118,
      "Ġflame": 9119,
      "Ġgenannt": 9120,
      "Ġusher": 9121,
      "ufzer": 9122,
      "Ġboat": 9123,
      "ĠVorder": 9124,
      "Ã¼nftig": 9125,
      "Ġperi": 9126,
      "Ġsolches": 9127,
      "Ġbehold": 9128,
      "Ġconscience": 9129,
      "Ġinside": 9130,
      "ehme": 9131,
      "ĠPfeil": 9132,
      "Ġwax": 9133,
      "Ġgelesen": 9134,
      "Ġgelangt": 9135,
      "nerin": 9136,
      "Ġvergangen": 9137,
      "ĠSeufzer": 9138,
      "ĠFlÃ¼gel": 9139,
      "Ġretired": 9140,
      "Ġgefragt": 9141,
      "ĠAufseher": 9142,
      "Ġdistra": 9143,
      "ĠLandau": 9144,
      "ĠwuÃŁten": 9145,
      "Ġdifference": 9146,
      "ĠPlan": 9147,
      "ĠFenstern": 9148,
      "Ġhastily": 9149,
      "fÃ¤hrt": 9150,
      "Ġsooner": 9151,
      "kerchief": 9152,
      "Ġgebrochen": 9153,
      "Ġreturning": 9154,
      "Ġconfess": 9155,
      "Ġcareful": 9156,
      "Ġillum": 9157,
      "Ġdirected": 9158,
      "Ġactually": 9159,
      "Ġtiefer": 9160,
      "ĠSofa": 9161,
      "ĠGebet": 9162,
      "Ġbedeuten": 9163,
      "ĠStufen": 9164,
      "ĠVersamm": 9165,
      "atural": 9166,
      "Ġwiederholen": 9167,
      "ĠEliza": 9168,
      "Ġjedenfalls": 9169,
      "ĠhÃ¼bschen": 9170,
      "ĠbeschÃ¤ftigte": 9171,
      "ĠAmt": 9172,
      "Ġbreathing": 9173,
      "Ġexamining": 9174,
      "Ġmental": 9175,
      "ĠÃ¤uÃŁer": 9176,
      "fahrt": 9177,
      "Ġverschiedene": 9178,
      "Ġhingehen": 9179,
      "ĠStrem": 9180,
      "Ġsoldier": 9181,
      "ĠFrÃ¼hl": 9182,
      "Ġcouple": 9183,
      "ĠRegiment": 9184,
      "Ġproceedings": 9185,
      "Ġreflected": 9186,
      "Ġfremden": 9187,
      "ONS": 9188,
      "ĠStockwerk": 9189,
      "Ġspectacle": 9190,
      "ĠRÃ¼cksicht": 9191,
      "Ġcruel": 9192,
      "ĠBursche": 9193,
      "ĠGouvernements": 9194,
      "Ġslept": 9195,
      "freund": 9196,
      "Ġcollar": 9197,
      "Ġdicke": 9198,
      "ĠzurÃ¼ckgekehrt": 9199,
      "Ġvarious": 9200,
      "abbit": 9201,
      "Ġhoffte": 9202,
      "ĠberÃ¼hrte": 9203,
      "Ġjealousy": 9204,
      "ĠJungfrau": 9205,
      "Ġpreparing": 9206,
      "ĠPartei": 9207,
      "ĠvergnÃ¼gt": 9208,
      "ĠÃ¤ngstlich": 9209,
      "ĠVogel": 9210,
      "ĠSchleier": 9211,
      "Ġsuggest": 9212,
      "ĠErnst": 9213,
      "Ġnodded": 9214,
      "ĠstÃ¤rker": 9215,
      "Ġmelancholy": 9216,
      "mosph": 9217,
      "ĠdrÃ¤ngte": 9218,
      "wirrung": 9219,
      "Ġwooden": 9220,
      "Ġdetermined": 9221,
      "Ġmagnific": 9222,
      "Ġmisfortune": 9223,
      "Ġlantern": 9224,
      "ĠJupiter": 9225,
      "Ġafternoon": 9226,
      "Ġtwelve": 9227,
      "ĠIrrtum": 9228,
      "Ġabsence": 9229,
      ");": 9230,
      "?--": 9231,
      "Ab": 9232,
      "blichen": 9233,
      "cil": 9234,
      "hab": 9235,
      "house": 9236,
      "keln": 9237,
      "macht": 9238,
      "nem": 9239,
      "oin": 9240,
      "port": 9241,
      "pass": 9242,
      "rischen": 9243,
      "sc": 9244,
      "woman": 9245,
      "yle": 9246,
      "zy": 9247,
      "inate": 9248,
      "Ġaim": 9249,
      "Ġath": 9250,
      "Ġtue": 9251,
      "Ġtorn": 9252,
      "Ġtiny": 9253,
      "Ġtables": 9254,
      "Ġwip": 9255,
      "Ġhoo": 9256,
      "Ġthread": 9257,
      "Ġmam": 9258,
      "Ġmater": 9259,
      "itor": 9260,
      "itable": 9261,
      "Ġbour": 9262,
      "Ġbod": 9263,
      "isation": 9264,
      "einanders": 9265,
      "Ġnimmt": 9266,
      "astes": 9267,
      "Ġfei": 9268,
      "Ġfla": 9269,
      "Ġfaint": 9270,
      "ĠgÃ¼t": 9271,
      "oute": 9272,
      "Ġlap": 9273,
      "Ġlord": 9274,
      "Ġloose": 9275,
      "Ã¼ben": 9276,
      "Ã¼stern": 9277,
      "Ġtod": 9278,
      "eling": 9279,
      "stit": 9280,
      "Ġeintrat": 9281,
      "Ġparl": 9282,
      "Ġbeider": 9283,
      "omfort": 9284,
      "Ġham": 9285,
      "Ġerz": 9286,
      "urie": 9287,
      "urme": 9288,
      "ettel": 9289,
      "etwegen": 9290,
      "ality": 9291,
      "idable": 9292,
      "ĠGre": 9293,
      "ĠGele": 9294,
      "ĠGoth": 9295,
[...]
